memory_initialization_radix=2;
memory_initialization_vector=
01111111110000000111111110000000100000001000000001111111011111111000000001111111011111111000000010000000011111111000000010000000000000000111111101111111011111110111111110000000011111110111111100000000000000001000000010000000100000001100000010000000100000001100000010000000011111110100000001111111011111110111111101111111011111110111111101111111100000000111111101111111010000000111111110000000011111110111111110000000010000001000000001111111100000001000000010000000100000000111111110000000100000000111111101111111,
01111111100000000111111110000000100000001000000001111111011111110111111101111111011111111000000010000000011111111000000010000000100000000111111111000000011111110111111100000000011111110111111101111111011111111000000010000000011111111000000001111111100000001000000010000000000000000111111110000000011111110111111101111111011111111000000001111111011111110111111101111111100000000111111101111111100000000000000010000000011111110111111110000000011111111000000000000000110000000111111101000000110000000111111110000000,
01111111011111111100000010000000011111111000000001111111011111110111111101111111011111111000000010000000011111111000000001111111011111110111111101111111100000001000000001111111011111110111111101000000100000000111111110000000100000000111111110000000100000000111111101111111011111110111111110000000011111110100000001111111011111111000000001111111110000000111111101111111011111110111111101111111100000001000000011000000011111110111111110000000100000001000000001111111011111110111111110000000000000000111111110000000,
10000000011111111000000010000000011111110000000001111111100000000111111101111111011111110111111110000000011111110111111101111111011111110111111110000000100000001000000001111111011111111000000001111111011111110111111101111111100000000111111110000000100000000100000001111111100000001000000011000000100000000111111111000000011111111000000001111111011111110111111101111111100000000111111101111111011111111000000010000000011111110000000011000000100000000111111110000000100000000111111110000000100000000111111110000000,
01000000011111110111111110000000011111110000000011000000100000000111111110000000011111110111111111000000011111111000000010000000011111110111111101111111100000001000000001111111000000001000000001111111011111110111111101111111100000000111111101111111011111110111111101111111100000000000000010000000100000000111111110000000011111110111111101111111011111110100000001111111011111110111111101111111011111110111111101111111011111110111111110000000000000001000000011000000100000000111111101111111100000000111111110000000,
01111111011111111000000010000000000000000000000001000000100000001000000001000000011111110111111101111111011111111000000010000000100000000111111110000000100000001000000001000000011111111000000001111111100000000111111101111111110000000111111101111111011111110111111101111111100000001000000010000000000000000111111110000000011111110111111101111111000000000111111101111111100000000111111101111111011111110111111101111111000000001000000011000000100000001000000001111111100000000111111101111111110000000111111110000000,
01111111011111111100000001111111100000000111111101111111100000001000000001111111011111110111111101000000011111110000000010000000011111110111111101111111011111111000000001111111011111111000000001111111100000000111111101111111011111110111111101111111110000000111111101111111011111110111111101111111000000000111111110000000011111110111111101111111100000000111111101111111011111110111111101111111100000000111111101111111011111110111111111000000100000000000000010000000100000000111111101111111100000000111111110000000,
00000000100000000111111101111111100000000111111101111111011111111000000010000000100000000111111110000000011111111000000001111111100000000111111101000000011111111000000011000000011111110111111101111111110000000111111101111111011111111000000000000000100000000111111101000000110000000111111101111111011111111000000001111111011111110111111101111111100000000111111101111111110000000111111101111111000000000111111100000000011111110111111111000000010000000111111100000000100000000111111110000000011111110111111101111111,
01111111011111111100000001111111100000001000000001111111000000000000000001111111011111110111111101111111011111110111111101111111010000000111111110000000011111110111111110000000011111110000000001111111100000000111111101111111011111110111111101111111011111110111111110000000011111110111111101111111100000000000000001111111011111110111111101111111100000000111111101111111011111110111111101111111000000000111111110000000100000001000000010000000110000000111111110000000011111110111111110000000110000000111111101111111,
01111111011111111000000001111111100000001000000001000000100000001000000001111111011111111000000011000000011111110111111110000000011111110111111101111111011111110111111100000000011111111000000001111111100000000111111111000000011111111100000001111111100000000111111110000000011111110111111101111111011111111000000001111111011111110111111101111111100000000111111101111111011111110111111101111111100000000111111100000000011111111000000001111111011111110111111101111111100000000111111101111111000000000111111101111111,
01111111011111110111111101111111011111110111111101111111100000000111111101111111011111110111111100000000011111111000000001111111010000000111111101111111011111111000000000000000011111111000000001111111011111110111111101111111011111111000000010000000100000001000000010000000011111110111111101111111011111110100000001111111011111110111111110000000011111111000000001111111011111111000000001111111011111110111111101111111011111111000000001000000100000001000000001111111011111110111111100000000100000000111111101111111,
01111111011111110111111101111111100000001000000001111111100000001000000001111111011111111000000001111111110000000111111110000000100000000111111101111111011111110111111101111111011111110111111110000000011111110111111100000000011111110111111110000000100000000111111110000000011111110111111101111111011111111100000001111111011111111000000010000000011111111000000010000000011111111000000001111111100000000111111101111111011111111000000010000000100000001000000001111111000000000111111101111111000000000111111111000000,
01111111011111110111111110000000100000001000000001111111011111111000000000000000011111111100000001111111011111110111111111000000100000000111111101111111011111110111111101111111011111110111111101111111010000000111111110000000100000000111111110000000000000001000000011000000011111110111111101111111000000001000000001111111011111110111111101111111011111110111111101111111100000000111111101111111100000000111111101111111000000001000000010000000010000001000000001111111100000000111111101111111100000000111111101111111,
01111111011111110111111110000000100000000111111110000000011111110111111101111111011111111000000000000000011111110000000001111111011111110111111101000000011111110111111101111111100000001100000001111111011111111100000010000000100000000111111101111111000000001000000010000000010000000111111101111111011111110111111101111111011111110111111100000000011111110111111101111111100000000111111101111111000000000111111110000000011111110111111101111111011111111000000001111111011111110111111110000000100000000111111110000000,
01111111100000000111111101111111100000000111111110000000100000000111111101111111011111111000000001111111100000001000000001111111100000000111111101111111000000000111111110000000011111110111111101111111110000001000000010000000011111111000000001111111100000000111111110000000011111110111111110000000100000001000000010000000011111110000000001111111011111111100000001111111100000000111111101111111011111111000000000000000011111111000000000000000011111111000000001111111100000000000000011000000100000000111111110000000,
01111111100000000111111101111111100000000111111110000000011111110111111101111111011111111000000001111111011111110111111101111111100000000111111101111111011111110111111101111111100000000111111101111111011111110111111101111111011111110111111101111111011111110111111110000000011111110111111110000000011111110111111101111111011111110111111110000000011111111000000001111111100000001000000001111111100000001000000001111111011111110000000001111111011111110111111101111111010000001000000001000000011111110111111110000000,
01111111110000000111111101111111100000000111111101111111011111111000000001111111011111111000000001111111011111111000000001111111100000000111111101111111100000000111111101111111100000000100000001111111011111110111111101111111100000000111111110000000011111110111111101000000011111110111111110000000011111110111111110000000011111111000000010000000011111111000000001111111110000000111111110000000000000001000000001111111011111111000000000000000011111111000000001111111011111110111111111000000011111110111111110000000,
01111111100000000111111110000000011111110111111110000000011111110111111110000000100000001000000010000000000000000111111101111111011111111000000001111111011111110111111101111111100000000111111101111111011111111000000001111111011111111100000001111111011111110111111110000000011111110111111110000000100000000111111101111111011111110100000001111111011111111000000010000000100000000111111110000000011111111000000001111111011111110111111111000000011111111000000011000000011111111000000010000000011111110111111101111111,
01111111100000000111111101111111100000001000000001000000000000000111111110000000011111111000000010000000011111110111111101111111011111110111111101111111011111111000000001111111100000000111111101111111011111110111111101111111100000001000000010000000011111110111111110000000011111110111111110000000100000001000000001000000011111110111111101111111011111110100000001111111100000001000000011000000011111111000000010000000010000001000000010000000011111111000000010000000010000001000000010000000011111110111111101111111,
01111111011111110111111101111111011111110111111110000000011111110111111110000000011111111000000010000000100000000111111110000000011111110111111100000000011111110111111101111111100000000111111101111111011111110111111101111111011111111000000011000000100000000111111110000000100000000000000010000000011111110100000010000000011111110111111110000000011111110111111110000000000000001000000010000000100000001000000010000000011111110111111101111111011111111100000001000000100000000111111101000000011111110000000001111111,
10000000100000000111111110000000100000000111111100000000011111111000000010000000000000001000000001111111100000000111111110000000011111111000000001111111100000000111111101111111100000001000000001111111100000000111111110000000011111111000000010000000100000001100000010000000000000001000000010000000011111111000000011000000011111110111111101111111100000000111111101000000100000000000000010000000011111111000000000000000011111111000000001111111011111110111111111000000100000001000000010000000011111110111111111000000,
10000000100000000100000010000000011111110111111101111111100000001000000010000000100000001000000001111111100000000111111110000000011111110111111101111111100000001100000010000000100000001100000010000000100000000111111110000000100000000111111101111111100000000111111101111111011111110111111110000000100000000111111111000000011111111000000010000000011111111000000010000000100000000111111101111111011111111000000011000000011111111000000001111111100000000100000010000000011111111000000010000000011111110111111101111111,
10000000100000001000000010000000011111110111111110000000011111110100000010000000011111111000000010000000100000001000000001000000011111110111111101111111110000000100000011000000100000000100000010000000011111111000000001111111100000000111111111000000100000000111111110000000011111111000000010000000011111111000000010000000011111110100000010000000100000000000000010000000011111111000000010000000011111110111111101111111011111111000000001000000011111110111111110000000010000001000000010000000110000000111111101111111,
01111111011111110111111110000000011111111100000010000000011111110111111110000000011111111000000001111111011111110100000001111111000000000111111100000000011111110111111111000000011111111100000010000000011111111000000001111111011111110111111101111111100000000000000010000000011111111000000001111111011111110100000010000000011111111000000010000000100000001000000001111111110000001000000010000000000000000111111101111111011111110100000010000000011111111000000001111111011111110111111110000000011111110111111110000000,
10000000100000001000000001111111010000001000000001111111011111110111111101111111011111110111111101111111011111110111111110000000100000000111111110000000011111110111111110000000011111110111111110000000100000001000000010000000100000000111111101111111100000001000000010000000011111111000000001111111100000000100000001111111011111111000000001111111011111110111111101111111011111110111111101111111100000000111111110000000011111110100000011000000000000000111111101111111011111110111111110000000100000000111111111000000,
11000000011111111000000010000000010000001000000001111111010000001000000001111111011111110111111101111111011111111000000001111111000000000111111101111111110000000111111101111111011111111000000010000000010000000111111110000000100000000111111101111111100000001000000010000000011111111000000001111111110000001000000001111111011111111000000010000000110000001000000001111111100000000111111110000000100000000111111101111111011111110111111110000000011111111100000011000000011111110111111101111111100000000111111101111111,
10000000011111111000000010000000100000001000000001111111011111111000000001111111011111110111111101111111011111111000000001111111100000000111111101000000011111111000000010000000011111110111111110000000100000000111111110000000011111110111111110000000100000000111111101111111011111111000000001111111011111111000000001111111011111111000000001111111100000000111111101111111011111110111111100000000100000001000000010000000100000000111111110000000100000000111111101111111100000000111111110000000100000000111111101111111,
10000000100000001000000011000000100000000100000000000000011111111000000001111111011111110111111101111111011111110111111110000000011111110111111101111111110000001000000010000000011111111000000010000000100000000111111110000000100000001000000001111111100000000111111101111111010000000111111101111111011111110111111100000000011111111000000001111111010000001000000001111111100000000111111110000000011111110100000010000000011111110111111110000000100000001000000001111111100000000111111111000000100000000111111101111111,
10000000011111111000000010000000100000000111111101111111011111110111111101111111011111110111111101111111011111111000000001111111011111110111111101111111010000001000000010000000100000000111111110000000011111110111111110000000100000000111111101111111100000000111111101111111100000000111111101111111011111111000000000000000011111111000000001111111010000000100000001111111011111110111111110000000011111111000000001111111011111111000000001111111011111111000000001111111011111110111111110000000100000000111111101111111,
10000000011111111000000010000000100000000111111101111111011111111000000011000000011111110111111101111111011111111000000011000000011111110111111101111111100000000000000010000000011111111000000010000000011111110111111110000000100000001000000000000000011111110111111101111111011111110111111101111111011111110111111110000000011111111000000001111111100000001000000001111111011111110111111111000000011111110111111110000000011111111000000010000000011111111000000001111111010000000111111111000000010000000111111110000000,
10000000011111111000000010000000100000000111111101111111011111111100000010000000010000000111111101111111011111111000000001111111011111110111111101111111000000001000000000000000011111111000000010000000011111110111111101111111100000000111111101111111100000000111111101111111000000001000000001111111011111111000000010000000011111111000000001111111100000001000000001111111100000000111111101111111011111110111111101111111011111110111111101111111011111110000000001111111011111110111111101111111100000000111111110000000,
10000000010000000100000001111111100000000111111101111111011111111000000010000000011111110111111110000000011111110111111110000000100000000111111101111111011111111000000011000000011111111000000010000000011111110111111101111111100000000111111101111111010000000111111101111111011111110100000001111111100000000111111110000000011111110111111101111111100000001000000001111111100000000111111101111111011111110111111101111111011111111000000001111111100000000111111101111111011111110111111101111111100000000111111110000000,
10000000011111111000000010000000100000000111111101111111100000001000000001111111011111110111111101111111011111110111111110000000011111110111111101000000011111110111111101111111011111111000000010000000011111110111111110000000100000000111111101111111100000000111111101111111011111111000000001111111100000000111111101111111011111111000000001111111100000001000000001111111011111110111111101111111011111110111111101111111011111111000000010000000011111110111111101111111011111110111111101111111011111110111111110000000,
10000000011111111000000001111111100000000111111101111111011111110100000010000000011111110111111110000000011111110111111101111111100000000111111110000000011111110111111101111111011111111000000010000000011111111000000001111111100000000111111101111111011111110111111101111111011111110111111111000000100000001000000010000000011111111000000000000000100000001000000001111111011111110111111101111111011111110000000010000000011111111000000001111111000000000100000001111111011111110111111101111111011111110111111101111111,
10000000011111110111111110000000100000000111111101111111011111111000000000000000011111110111111101000000011111110000000001111111100000000111111110000000100000001000000001111111011111110111111101111111011111110111111110000000110000000111111110000000010000000111111101111111011111110111111101111111110000001100000001111111011111111000000011000000100000001000000001111111011111110111111110000000100000001100000001000000011111111000000001111111011111110111111101111111011111110111111101111111100000000111111101111111,
01111111011111111000000001111111100000000111111101111111011111110111111110000000011111110111111101111111011111110000000001111111100000000111111101111111010000001000000001111111100000001000000010000000011111111000000001111111100000000111111101111111011111110111111101111111011111111000000001111111000000001000000001000000011111111000000010000000011111111000000001111111010000000111111101111111011111110111111110000000000000000111111110000000011111111000000010000000010000000111111101111111011111110111111101111111,
01111111011111110000000001111111011111110111111101111111100000000111111101111111011111110111111101111111011111110111111101111111011111110111111110000000011111110111111101111111011111111000000001111111100000001100000001111111100000000111111101111111110000000111111101111111011111110100000001111111100000001000000001111111011111111000000010000000011111110111111101111111011111110111111101000000011111110111111110000000011111111000000010000000011111111000000010000000011111110111111110000000011111110111111101111111,
01111111011111110111111110000000011111110111111101111111011111111000000011000000011111110111111110000000011111110111111101111111011111110111111110000000010000000100000001111111011111110111111101111111011111111000000001111111011111110111111110000000100000000111111110000000011111111000000001111111011111110111111101111111011111111000000010000000011111110111111101111111011111111000000010000000010000000111111110000000100000001000000010000000011111110100000001111111011111110111111101111111011111111000000001111111,
01111111100000000111111110000000011111110111111101111111011111110111111101111111011111110111111101111111011111110111111101111111011111110111111110000000000000000111111110000000100000000111111111000000100000000100000001111111011111111000000001111111100000001000000011000000010000001000000001111111011111110111111101111111011111111000000010000000011111110111111101111111011111110111111101111111010000000111111111000000100000000111111101111111011111111000000000000000011111111000000001111111011111110111111101111111,
10000000100000000111111101000000100000000111111101111111100000001000000001111111011111111000000001111111011111110111111101111111010000000111111101000000100000000000000001000000100000001000000010000000100000000111111110000000100000000111111101111111100000000111111101000000100000001100000001111111011111111000000001111111011111111000000011000000110000001000000001111111110000000111111110000000011111110111111110000000100000001000000001111111011111110111111110000000011111110111111101111111011111110111111101111111,
10000000011111111000000010000000011111110111111110000000100000000111111101111111011111111000000001111111100000000111111101111111110000000111111110000000100000000111111101111111011111111000000010000000100000001000000010000000100000001000000001111111011111110111111101111111011111111000000010000000011111111000000001111111011111111000000001111111110000000111111101111111100000000111111101111111011111110111111110000000011111110111111110000000100000000111111111000000011111110111111101111111011111110111111110000000,
01000000011111111100000001111111011111111000000001111111011111110111111101111111011111111000000000000000011111111000000001111111000000000111111101111111100000000111111110000000011111110000000010000000100000000111111110000000100000000000000001111111011111111000000001111111000000000111111101111111100000001000000010000000011111111000000000000000011111110111111101111111011111110111111101111111110000001000000001111111100000001000000001111111011111111000000001111111100000000111111101111111011111110111111101111111,
01111111011111111000000010000000011111111000000001111111011111110111111101111111011111111100000001111111011111111000000001111111011111110111111101111111011111110111111110000000011111110000000010000000100000000111111101111111011111111000000001111111011111110111111101111111100000001000000010000000100000001000000010000000011111111000000010000000011111110111111101111111011111111000000001111111011111111000000001111111011111111000000001111111011111110111111101111111100000000111111101000000011111110111111110000000,
01000000011111111000000001111111100000000100000001111111100000001000000010000000011111111000000001111111011111111000000010000000011111110111111101111111011111111000000010000000011111110111111111000000011111110000000001111111100000001000000001111111011111110111111110000000100000001000000001111111011111111000000001111111011111110111111110000000100000000111111101111111011111111000000001111111100000001000000010000000011111111000000001111111011111111000000001111111000000000111111101111111011111110111111110000000,
11000000100000001000000010000000011111111100000001111111100000000111111101111111011111111000000001111111011111111000000001111111100000000111111101111111010000000111111101111111011111111100000001000000000000000111111110000000100000001000000001111111100000000000000010000000011111111000000001111111011111110111111101111111011111110100000011000000100000000100000001111111011111111000000001111111110000000111111110000000011111111000000011000000000000001000000001000000011111110111111110000000011111110111111110000000,
01111111010000001000000001111111100000000111111101111111100000000000000010000000011111111000000010000000011111110111111101111111100000000111111101111111011111110000000010000000011111111000000010000000100000001000000010000000011111111000000001111111110000001000000001111111011111110111111101111111011111111000000001111111011111110111111101111111100000001000000001000000100000001000000001111111011111111000000001111111011111110111111110000000011111111000000001111111011111110111111110000000100000000111111110000000,
01111111011111111000000001111111011111110111111101111111011111111000000010000000011111111000000001111111011111110111111101000000011111110111111110000000011111110111111101111111011111110111111101111111100000001000000001111111100000001100000001111111011111111000000001111111100000001000000001111111011111110111111101111111011111110111111110000000011111111000000001111111011111111000000001111111011111110111111101111111011111110111111101111111100000001000000001111111100000000111111101000000011111110111111101111111,
11000000000000000111111110000000011111110111111101111111011111111000000010000000011111111000000001000000011111111000000001111111100000000111111101111111011111111100000010000000110000000111111110000000100000000111111101111111100000001000000010000000110000000000000001111111011111111000000001111111011111111100000001111111011111110111111110000000011111111000000001111111100000001000000010000000100000000111111101111111011111111000000001111111011111110111111101111111011111110111111100000000011111110111111100000000,
11000000100000000000000001111111011111110111111110000000011111111000000010000000011111111000000010000000100000000111111101111111100000001000000010000000011111110111111101000000100000000111111101000000100000001100000001111111100000001000000001111111011111111000000001111111100000001000000010000000100000001100000001111111011111110111111101111111110000001000000001111111011111111000000001111111011111110111111101111111011111111100000010000000011111110111111111000000011111111000000001111111011111110111111110000000,
01111111100000000000000010000000100000001000000010000000100000000111111110000000011111111000000001111111011111110111111101111111100000000100000001111111011111110111111101000000100000000111111101111111000000001000000010000000110000001000000001111111011111110100000010000000011111110111111110000000000000000111111101111111011111111000000001111111011111111000000010000000100000000000000000000000100000000111111101111111011111111000000001111111011111110111111110000000011111111000000010000000011111110111111110000000,
01111111000000000111111101111111100000001000000010000000100000001000000010000000011111111000000000000000100000000111111101111111011111110111111101111111110000001000000001111111100000001000000001111111100000000111111101111111100000000111111100000000011111110000000001111111100000000111111110000000110000001000000011000000000000000111111100000000011111111000000001111111100000001000000001111111011111110111111101111111011111110111111101111111100000000111111101111111011111111000000010000000100000000111111110000000,
01111111100000000111111100000000011111111000000011000000011111110100000010000000011111110111111110000000100000000111111110000000011111111000000001111111011111111000000001111111000000001000000001111111100000000111111101111111100000001000000001111111011111111000000001111111011111110111111101111111011111110111111110000000011111111000000001111111011111111000000010000000000000001000000001111111000000001000000010000000011111111000000010000000100000000111111101111111011111111000000010000000010000000111111110000000,
11000000011111110111111101111111100000000111111110000000100000000111111100000000100000001000000001000000100000000111111101111111100000000111111101111111011111111000000001111111011111111000000010000000110000001000000001111111100000001000000001111111011111110111111101111111000000000111111101111111011111111100000001111111011111111000000001111111011111111000000010000000011111111000000010000000100000000000000001111111011111110000000010000000011111111000000001111111000000001000000010000000011111110111111110000000,
01111111011111110111111101111111100000000111111110000000100000001000000001111111011111111000000010000000100000000111111110000000110000000111111101111111011111111000000001111111011111111000000000000000100000001000000010000000100000001000000001111111011111110111111101111111010000001000000010000000100000000111111100000000110000000111111101111111011111110000000010000000011111111000000001111111011111110111111110000000011111111000000010000000011111110111111101111111011111110111111110000000100000000111111110000000,
10000000011111110111111110000000100000000111111101111111011111110111111110000000011111110100000001111111100000000111111101111111011111110111111101111111011111111000000001111111011111111000000010000000011111111000000001111111011111111000000001111111011111111000000000000000010000000111111110000000011111110111111101111111011111111000000010000000110000001000000010000000011111111000000010000000100000001000000000000000011111110111111101111111011111110100000010000000011111110111111110000000110000000111111101111111,
10000000100000000111111110000000011111110111111110000000011111110000000001111111011111110111111101111111011111110111111110000000011111110111111101111111100000000111111110000000011111111000000010000000010000001000000001111111100000001000000001111111100000001000000001000000011111110111111110000000011111110111111110000000011111111000000001111111100000001000000010000000011111110111111101111111011111111000000001111111011111110111111110000000011111110111111110000000011111110111111110000000011111110111111101000000,
10000000100000001000000010000000100000000000000010000000100000001000000001111111011111111000000001111111100000000111111101111111011111110111111111000000011111110111111101111111110000001000000010000000100000000111111101111111011111110111111101111111011111111000000001111111011111110000000001111111011111110111111101111111011111111000000001111111011111110111111111000000100000001000000001111111100000000000000010000000011111110111111110000000011111110111111101000000011111110111111110000000100000000111111111000000,
01111111011111111000000010000000100000000111111101111111100000001000000010000000011111111000000001111111100000001000000001111111100000000111111101111111011111110000000001111111110000000111111101111111000000000100000001111111011111110000000001111111011111110111111110000000100000001000000001111111011111110111111101111111011111110111111101000000100000001000000010000000100000000111111101111111100000001100000001111111011111110111111101111111100000000111111101111111100000000111111101111111011111110111111110000000,
10000000011111110111111110000000100000000111111110000000100000001000000001111111100000001000000010000000100000001000000001111111011111110111111101111111100000001000000001111111010000000111111101111111011111110111111101111111100000001000000001111111100000000111111110000000100000000000000001111111010000000111111101111111011111111000000001111111100000000111111110000000011111111000000010000000000000001000000010000000011111110111111101111111100000001000000001111111011111111000000000000000100000000111111101111111,
01111111110000000111111101111111011111111000000000000000100000000111111101111111011111111000000010000000100000001100000011000000011111110111111110000000100000000111111101111111011111110111111100000000011111111000000010000000011111111000000001111111011111111000000001111111100000000111111101111111100000000111111110000000011111111000000001111111010000000111111110000000011111110111111110000000011111110000000001111111100000000111111101111111011111111000000001111111011111111000000001000000100000000111111111000000,
01111111011111111000000001111111100000001000000010000000100000000111111101111111011111111000000001111111100000001000000010000000011111110100000001111111011111111000000001111111011111110111111100000000011111111000000010000000011111111000000001111111000000000111111110000000011111111000000010000000011111111000000010000000011111111000000001111111100000000111111101111111011111110111111110000000100000001000000001111111011111110111111101111111011111111000000010000000011111111000000001000000100000000111111110000000,
10000000100000000111111110000000100000000111111101111111100000000111111111000000011111111000000001000000011111111000000010000000000000000111111100000000100000000111111110000000100000000111111101111111100000001000000001111111011111111000000010000000011111111000000010000000011111110111111101111111011111110111111100000000011111110111111101111111011111110111111101111111100000000111111101111111011111111100000001111111011111110111111101111111010000000111111101111111011111110111111110000000011111110111111101111111,
10000000011111110111111101111111011111110111111101111111011111110100000010000000011111111000000010000000011111111000000010000000011111110111111101111111011111111000000010000000100000000111111111000000011111110111111110000000010000000111111110000000011111110111111110000000110000000111111101111111100000000100000000000000011111110100000010000000011111110111111101111111011111110111111101111111100000001100000011000000011111110100000010000000110000001000000010000000000000000111111110000000011111110111111101111111,
10000000011111111000000001111111100000000111111101111111010000000111111101111111011111111000000001111111100000001000000001111111100000000111111110000000011111110111111110000000011111110000000001111111011111110100000001111111000000001000000010000000011111111000000010000000100000001000000001111111100000001000000001111111011111110111111101000000010000000111111101111111011111110000000010000000100000001000000010000000011111110111111101111111100000001000000010000000100000000111111101111111011111110111111101111111,
10000000100000000111111110000000100000000111111101111111011111110111111101111111011111110111111101111111100000000000000001111111011111110111111101111111100000000111111101111111011111110111111101111111011111111000000010000000011111111000000010000000110000001000000001111111100000000000000001111111100000001000000001111111100000001000000010000000011111110000000001111111011111111000000010000000011111111000000010000000011111110111111101111111011111110111111110000000100000000111111110000000011111110111111101000000,
10000000100000000111111101111111110000000111111110000000000000001000000001111111011111111000000001111111100000001000000001111111100000001000000001111111011111111000000001111111011111110111111101111111011111111000000001111111011111111000000010000000011111110111111101111111100000001000000001111111000000000111111101111111100000001000000001111111100000001100000001111111011111110000000001111111011111110111111101111111100000000111111110000000100000000111111111000000011111110111111110000000011111110111111101111111,
10000000011111111000000001111111011111110100000001111111100000001000000001111111011111110111111101111111011111111000000001111111000000000111111110000000100000000111111110000000011111110111111101111111011111111000000010000000011111111000000001111111000000001000000010000000100000000111111101111111100000001000000001111111100000001000000001111111110000000111111101111111011111110111111101111111011111111000000001111111100000000111111101111111011111110111111110000000100000000111111101111111100000000111111101111111,
10000000011111110111111110000000011111111000000010000000011111110111111101111111011111111000000001111111011111111000000001111111011111110111111101111111100000000111111110000000100000001000000001111111011111111000000010000000011111111000000010000000100000001000000010000000011111111000000001111111000000001000000000000000100000001000000010000000100000000111111101111111011111110111111111000000011111111000000001111111100000000111111101111111011111110111111101111111011111110111111101111111100000000111111111000000,
10000000100000001000000001000000100000001000000010000000011111111000000010000000011111110100000001111111100000001000000011000000110000000111111110000000011111111000000010000000100000000111111101111111000000001000000010000000011111110111111101111111100000001000000001111111100000001100000010000000011111110000000001111111100000000111111101111111100000001000000001111111011111110111111101111111110000001000000001111111100000000111111101111111100000000111111110000000011111110111111111000000100000000000000010000000,
01000000100000000000000010000000100000000111111110000000011111110000000010000000011111110111111101111111011111111000000011000000100000000111111110000000011111111000000010000000011111110111111110000000100000001000000010000000100000000111111101111111011111111000000010000000011111111000000010000000100000000111111110000000011111111000000001111111011111111000000001111111100000000111111101111111011111110111111110000000011111110111111101111111011111111100000011000000100000001000000001111111100000001100000010000000,
10000000011111110100000001111111100000000111111110000000100000000111111101111111011111110111111110000000011111110111111110000000011111110111111101111111100000001000000010000000011111110111111101111111011111110100000001111111000000000000000001111111011111110111111110000000100000000000000001111111100000001000000010000000011111111000000011000000011111111000000001111111011111111000000010000000011111110111111101111111100000001000000010000000100000000111111110000000100000000111111101111111110000000111111101111111,
01111111100000001000000001111111011111110111111101000000100000000111111101111111011111110111111110000000011111111000000010000000011111110111111101111111100000001000000010000000011111110111111101000000011111110000000010000000110000000111111101111111011111110000000001111111000000001000000001111111100000001000000001111111011111111000000010000000011111111000000001111111011111110100000010000000100000001000000010000000000000000111111101111111100000001000000011000000100000000111111110000000000000000111111101111111,
11000000100000001000000001111111011111111000000001111111100000001000000001111111011111110111111111000000100000001000000001111111011111110111111101111111100000001000000010000000011111110111111101111111100000000111111101111111100000000111111101111111011111111100000010000000100000000111111101111111100000001000000001111111011111111000000001111111100000000111111101111111011111111000000001111111100000000111111110000000011111110111111101111111100000000111111110000000011111110111111110000000100000000111111100000000,
10000000100000001000000010000000011111110111111101111111011111110111111101111111011111110111111101111111100000000111111101111111010000000111111110000000100000000111111110000000100000001000000001111111100000001000000001111111010000001000000001111111011111110111111101111111100000001000000010000000100000001000000010000000011111110111111110000000100000000111111101111111100000000111111101111111011111111000000001000000110000001000000001111111011111110111111101111111110000000111111101111111011111110111111111000000,
01111111011111111000000010000000011111110111111101111111011111110111111101111111011111110111111110000000011111110111111111000000000000000111111110000000011111110111111110000000011111110111111110000000100000001000000010000000011111111000000001111111100000000111111111000000100000001100000010000000100000001000000010000000011111110111111110000000011111111000000001111111010000000111111110000000110000001000000001111111100000001000000001111111011111111000000001111111110000000111111101111111011111110111111101111111,
01111111010000001000000010000000000000001000000001000000100000000000000000000000011111110111111110000000100000000111111101111111011111110111111111000000011111111100000010000000011111110111111110000000100000001000000010000000011111111000000001111111011111110111111101111111100000000111111110000000011111110111111110000000011111110111111101111111010000000111111101111111011111110111111110000000100000000111111110000000100000000000000011000000011111111000000001000000100000000000000010000000000000000111111110000000,
10000000100000001000000001111111011111111000000001111111011111111000000001111111011111110111111101111111100000001100000001111111011111110111111110000000011111110111111110000000011111110111111110000000100000000111111110000000011111111000000001111111100000001000000001111111011111111000000001111111011111110111111110000000011111110111111101111111100000000111111101111111011111110111111100000000100000001100000001111111110000000111111110000000100000000111111101111111100000000111111101111111010000000000000010000000,
10000000100000001000000001111111011111110111111110000000011111110111111101111111011111110111111101111111100000000111111100000000011111110111111110000000011111111000000010000000011111111000000001111111100000000111111101111111011111110111111110000000010000000111111101111111100000000111111110000000100000000000000010000000011111111000000010000000110000000111111101111111011111110111111110000000011111110111111110000000011111110111111110000000100000001000000010000000011111110111111101111111000000000111111110000000,
11000000100000000111111110000000011111111000000010000000100000001000000001111111011111110111111110000000100000000100000010000000100000000111111110000000011111110111111110000000011111110111111101111111000000001000000010000000011111111000000001111111100000001000000011000000100000001000000001111111100000000111111101111111011111110111111101111111010000000111111101111111100000000111111110000000100000000111111111000000011111110111111110000000100000000111111100000000100000001000000001111111100000000111111110000000,
10000000100000000111111101111111011111110111111101111111100000001000000001111111011111110111111110000000011111111000000010000000100000000111111110000000100000001100000011000000011111110111111110000000100000000100000001111111011111110111111101111111100000001000000011000000100000001000000001111111100000001000000011000000011111111000000001111111011111110111111101111111011111110111111110000000011111111000000010000000011111111100000001111111100000001000000010000000100000000100000001111111100000000111111111000000,
01111111000000001000000001111111011111110111111101111111100000001000000001111111011111110111111110000000100000001000000001111111100000000111111110000000011111110111111110000000011111111000000011000000100000000111111101111111011111111000000010000000011111110100000001111111011111111000000001111111100000001000000011000000011111111000000010000000100000000111111101111111011111110111111110000000100000001000000010000000011111110100000000000000100000001000000010000000100000000111111101111111100000000111111101000000,
10000000100000001000000001111111100000001100000001111111010000000100000001111111011111111000000001111111011111110111111110000000100000000111111101111111011111110111111101111111010000000111111110000000010000000111111101111111011111111000000001111111011111110111111110000000011111111000000001000000011111111000000010000000011111111000000010000000100000001000000001111111011111111000000010000000110000001000000001111111011111110000000010000000100000001100000010000000011111111100000001111111011111110111111110000000;
