memory_initialization_radix=2;
memory_initialization_vector=
1000000001111111011111110111111101111111011111111000000001111111100000001000000010000000010000001000000001111111100000001000000001111111010000001000000010000000011111111000000010000000011111110111111101111111100000000111111101111111100000001000000010000000,
0111111101111111011111111000000001111111011111110111111110000000100000000111111101111111100000001000000001111111100000001000000001111111011111111000000001111111011111110111111101111111100000001000000010000000011111110111111101111111011111110000000001111111,
1000000001111111100000001000000010000000110000001100000001111111011111110000000010000000011111111000000011000000011111110111111101111111100000000111111101111111010000001000000010000000100000001000000001111111100000000111111110000000000000001000000010000000,
0111111101111111100000000111111110000000011111111000000001111111100000000111111110000000100000001000000001111111011111110111111101111111100000000111111110000000100000000111111101111111011111111000000001111111100000000111111101111111011111111000000010000000,
0111111110000000100000001000000010000000100000001000000001111111011111110111111110000000100000000111111101111111100000000111111101111111011111110111111110000000100000001000000001111111011111111000000010000000011111110111111110000000011111110111111101111111,
0000000001111111011111111000000010000000011111110111111101111111000000001100000001111111011111111000000010000000110000000111111101111111000000001000000001111111011111111000000001111111100000000111111101111111011111111000000010000000011111111000000010000000,
0111111110000000011111111000000001111111100000000111111110000000011111111000000010000000110000000111111110000000110000000111111111000000011111110111111101111111011111110111111101111111010000000000000011000000011111111000000001111111100000000111111101111111,
1000000001111111110000000111111110000000100000000111111101111111011111110111111101111111011111111000000001111111011111110111111101111111010000001000000010000000011111111000000001111111011111110111111110000000100000000111111110000000100000001000000010000000,
0111111101111111100000000000000010000000100000001000000010000000100000001000000010000000100000001000000001111111011111110111111100000000011111111000000010000000100000000111111101111111100000000111111101111111100000000111111111000000011111111000000010000000,
1000000010000000011111111000000001111111100000000000000010000000100000000111111110000000011111110111111110000000100000001100000010000000011111110111111100000000011111110000000010000000100000001000000010000000011111111000000000000000100000000111111101111111,
1000000010000000011111111000000001111111110000000111111110000000011111111000000001111111000000001100000001111111100000000111111110000000011111110111111110000000011111110111111110000000100000000111111110000000011111110100000001111111100000000111111101111111,
0111111111000000100000001000000001111111000000000111111110000000011111110111111110000000100000000100000010000000011111110111111101111111011111110100000001111111011111110111111101111111100000001000000010000000011111111000000010000000011111111000000010000000,
1000000001000000011111111000000010000000100000000111111100000000100000000111111101000000011111111000000001111111100000001000000001111111011111110111111101111111011111111000000010000000011111110000000010000000100000000000000001111111010000001000000010000000,
1000000010000000011111111000000001111111011111110111111101111111011111111000000011000000011111110100000010000000010000000111111110000000011111110111111110000000011111111000000010000000100000001000000010000000011111111000000001111111100000000111111101111111,
1000000001111111000000001000000001111111100000000000000001111111011111110111111100000000011111110100000000000000011111110111111110000000100000001000000010000000100000000111111110000000011111110111111110000000100000000111111110000000100000000111111101111111,
1000000001111111011111110111111111000000100000000111111100000000100000000111111101111111100000000111111110000000000000001000000001111111010000000000000001111111011111111000000010000000011111110111111110000000100000001000000010000000011111111000000001111111,
1000000001111111011111111000000001111111100000001000000001111111110000000111111110000000011111111000000010000000011111110111111110000000011111111000000001111111011111110111111101111111011111110111111110000000100000000111111111000000011111110100000010000000,
1000000010000000011111111000000001111111011111110111111111000000011111110111111101111111000000001100000010000000100000000111111111000000011111110111111100000000011111110111111110000000100000001000000010000000011111110111111100000000100000000111111101111111,
1000000001111111011111111000000011000000000000000111111110000000100000001000000001111111100000000111111111000000100000000111111110000000011111111000000010000000011111110100000001000000010000000111111111000000110000000111111101111111100000000100000010000000,
0111111101111111011111111000000001111111011111110111111101000000110000001100000001111111100000001000000001111111100000000111111101111111011111111000000001111111011111110111111101111111100000001000000011000000011111110111111101111111011111111000000010000000,
1000000001111111011111110111111110000000110000000111111101111111011111110111111101111111011111111000000010000000100000001000000001111111011111110111111101111111100000000111111101000000100000001000000010000000100000000111111101111111011111111100000010000000,
0111111111000000011111111000000001111111100000001000000001111111110000001000000001111111100000000111111100000000100000000111111110000000110000001000000001111111000000001100000010000000010000000111111101111111100000000111111101111111011111111100000010000000,
0111111110000000011111111000000001111111011111110111111110000000100000000111111101111111100000000111111111000000011111111000000001111111011111110111111100000000011111110111111101111111010000001000000001111111011111110111111101111111100000001100000001111111,
1000000001111111011111111000000001111111011111111000000001000000011111111100000001111111100000001000000001111111011111110000000001111111011111111000000010000000110000000111111101111111110000000111111110000000100000000111111101000000100000001000000010000000,
0111111110000000011111110111111101111111011111110111111101111111100000000111111101111111011111111000000001111111100000001000000010000000011111111000000001111111011111111000000000000000011111110111111101111111100000000100000010000000011111110111111110000000,
1000000001111111100000001000000001111111100000001000000001000000011111111000000011000000100000001000000001111111100000000100000010000000011111111000000011000000100000001000000001111111011111110111111101111111110000000111111101111111100000001000000010000000,
0111111101111111011111111000000001111111110000000111111101111111100000000111111110000000011111110111111100000000011111110111111101111111000000001000000001111111011111111000000001111111011111110111111101111111011111110111111100000000100000000111111110000000,
0111111101111111011111110100000001111111011111110111111100000000100000000111111101111111011111111000000001111111100000001000000010000000011111111000000001000000011111110111111101000000011111110111111101111111010000000111111111000000011111111000000010000000,
1000000010000000011111111000000001111111110000001000000010000000011111111000000001111111100000000111111101111111011111111000000010000000100000001000000010000000100000001000000001000000011111111000000010000000100000001000000010000000011111111000000001111111,
1000000010000000100000000111111101111111100000001000000001111111011111110111111110000000100000000111111110000000100000000111111110000000011111111000000001111111100000001100000001000000011111110111111101000000011111110111111110000000100000000111111101111111,
1000000001111111011111111000000001111111011111110111111111000000100000001000000001111111011111111000000010000000010000001000000001111111011111110111111101111111011111111100000011000000011111110111111110000000011111110111111110000000011111111000000010000000,
1100000010000000000000001000000001111111011111110100000001111111100000001000000011000000100000000111111101111111100000001000000011000000011111111000000010000000000000001000000010000000010000000111111110000000100000001000000000000000100000001000000001111111,
0111111101111111011111111000000001111111100000000111111101111111100000001000000000000000011111111000000010000000011111110111111101111111011111110111111110000000011111111000000001111111011111110111111101111111100000000111111110000000110000000111111110000000,
0111111110000000100000000111111111000000100000000111111110000000011111110111111101111111100000000111111101111111100000001000000010000000011111110111111110000000011111110111111110000000010000000100000001111111011111111000000010000000100000001000000001111111,
1000000001111111011111111000000010000000011111110111111101111111100000001000000001111111011111111000000001111111011111110000000001111111011111111000000010000000100000000111111101111111010000000111111110000000100000000100000010000000100000001000000010000000,
1000000001111111011111111000000001111111100000001100000001111111100000001000000010000000011111111000000001111111011111111000000001111111100000001000000010000000011111110111111110000000011111111000000001111111100000000111111101111111100000000111111110000000,
0111111110000000011111111000000001111111011111110111111111000000011111111000000010000000100000000111111110000000110000001000000011000000011111110111111101111111011111111000000010000000011111111000000001111111011111111000000000000000011111110111111101111111,
0100000001111111011111111100000011000000100000000111111101111111000000000111111110000000100000000111111111000000011111110111111101111111011111110000000001000000011111110000000001111111011111110111111110000000010000001000000010000000011111111000000010000000,
0111111101111111011111110111111101111111011111110111111101111111011111111000000010000000100000000000000001111111011111111000000001111111000000001000000001111111011111110111111101111111100000001000000010000000100000000111111110000000011111111000000010000000,
1000000001111111011111111000000010000000011111110111111110000000100000001100000001111111100000000111111101111111011111110000000001111111011111110111111110000000011111110111111101111111100000000111111110000000100000000111111110000000011111111000000001111111,
1000000001111111011111111000000001111111011111110111111110000000011111110111111101111111011111111000000011000000100000000000000000000000011111110111111110000000011111110111111110000000110000000111111110000000011111111000000010000000011111110000000001111111,
0111111110000000011111110111111101111111011111110111111110000000100000000111111101111111100000000000000001111111011111111000000010000000100000001000000011000000011111110111111101111111011111110111111101111111100000001000000010000000100000000111111110000000,
0111111110000000000000000111111110000000100000000100000001000000011111110111111110000000100000000111111100000000100000000111111110000000011111110111111101111111110000001000000001111111011111111100000001111111011111111000000001111111100000000111111111000000,
1000000000000000011111111000000001111111011111111000000001111111100000001000000010000000010000001000000001111111011111111000000011000000011111111000000001111111000000001000000010000000010000001000000001111111100000000111111110000000000000000111111101111111,
0111111110000000110000000000000001111111000000000111111101111111110000000111111110000000011111110111111110000000100000000111111110000000011111110000000001111111011111110111111110000000011111111000000001111111100000000000000010000000100000000111111101111111,
0000000010000000011111111000000001111111110000000111111110000000011111111000000001111111011111110111111110000000100000000111111110000000011111110111111110000000011111111100000010000000100000000111111110000000011111111000000001111111100000000111111101111111,
0111111110000000011111111000000001111111011111110111111110000000100000000100000010000000100000000111111110000000100000001000000001111111011111110111111101111111011111110111111101111111100000001100000000000000011111111000000010000000011111111000000001111111,
0111111110000000000000001000000001111111011111110111111110000000011111110111111101000000011111110111111110000000011111111000000010000000011111110111111101111111011111110111111111000000100000001000000010000000011111111000000001111111100000000111111101111111,
0111111110000000011111111000000010000000011111110111111101111111100000001000000001111111011111111000000010000000011111110111111100000000011111111000000010000000100000000111111101111111100000000111111110000000100000001000000001111111100000001000000010000000,
1000000001111111100000000111111110000000100000001000000001111111100000001100000011000000010000000100000010000000011111110111111110000000011111111000000001111111100000001000000001000000100000000111111111000000100000001000000010000000100000000111111101111111,
0111111110000000011111110111111101000000100000000111111110000000100000000111111101111111100000001000000001111111011111111000000001000000011111110111111101111111011111110111111101111111100000000111111101111111011111111000000001111111110000001000000010000000,
1000000010000000011111111000000010000000100000000111111110000000100000000111111110000000011111111000000001111111011111111000000010000000100000001000000001111111100000001000000001111111011111111000000010000000100000001000000010000000100000001000000010000000,
1100000001111111011111111000000001111111011111110111111100000000100000000111111101111111011111111000000001111111100000001000000001111111011111111000000010000000011111110000000010000000110000000111111110000000110000000111111111000000011111110000000001111111,
0111111110000000011111111000000001111111100000000111111101111111011111111000000001111111100000000111111110000000100000001000000010000000100000001000000010000000011111110000000010000000011111111000000010000000100000000111111101111111010000000111111101111111,
1000000001111111011111111000000010000000100000001100000001111111100000000111111101111111100000001000000010000000100000000111111101111111100000001000000001111111011111110111111101111111000000001000000010000000100000001000000001111111100000001000000010000000,
1000000001111111011111110111111110000000100000001000000010000000011111111000000011000000100000000100000001111111011111110111111101000000011111110111111110000000100000001000000010000000100000001000000001111111100000000111111101111111010000001000000010000000,
0111111101111111100000000111111110000000100000001000000001111111100000000111111110000000011111111000000001111111011111110111111110000000100000000111111110000000100000000100000001111111011111111000000001111111100000000111111101111111011111111000000010000000,
0111111101111111000000001100000010000000100000000111111101111111110000000111111110000000100000001000000010000000011111111000000000000000010000001000000000000000011111111000000001111111011111110111111110000000100000001100000011000000100000001000000010000000,
1000000001111111011111110000000010000000100000001000000001111111100000001000000001111111011111110111111110000000011111110111111110000000100000000111111110000000100000000111111101111111110000000100000010000000110000000111111110000000011111111000000010000000,
1000000011000000100000001000000001111111100000000111111110000000011111111000000011000000000000000111111110000000011111110111111110000000011111110111111100000000011111110111111101000000100000001000000010000000011111110111111101111111000000001100000001111111,
1000000001111111100000000111111110000000011111111000000001111111100000001000000010000000011111111000000001111111110000000000000011000000011111110000000001111111100000001000000001111111011111111000000001111111011111111000000001111111100000000111111110000000,
1000000010000000100000001000000001111111100000001100000001111111011111110100000001111111100000001000000001111111100000001000000010000000011111111000000010000000011111110111111100000000011111110111111101111111100000000111111110000000011111110111111101111111,
0000000000000000011111111000000001111111011111110111111110000000100000001000000010000000011111111000000001000000011111111000000010000000011111111000000010000000011111110000000001111111100000000111111110000000011111111000000010000000011111110111111101111111,
0111111101111111100000000111111110000000011111111000000010000000100000000111111110000000100000000000000010000000011111110111111101111111011111110111111101111111100000000111111101111111100000001000000001111111011111111000000001111111011111110111111101000000;
