memory_initialization_radix=2;
memory_initialization_vector=
100000000111111110000000,
100000000111111101000000,
010000000111111101111111,
100000001000000010000000,
011111110100000010000000,
011111110111111110000000,
011111110111111101111111,
100000001000000001111111,
011111111000000010000000,
100000000111111111000000,
100000000111111101111111,
010000000111111101111111,
011111111000000010000000,
100000000111111110000000,
100000001000000001111111,
011111111000000001111111,
100000000111111100000000,
011111111000000010000000,
011111111000000001111111,
100000000111111110000000,
011111110111111110000000,
000000000111111110000000,
100000001000000010000000,
011111111000000001111111,
100000000111111101111111,
100000001000000001111111,
011111110000000010000000,
100000001100000001111111,
010000000100000001000000,
100000000111111110000000,
011111111000000001000000,
011111111000000001000000;
