memory_initialization_radix=2;
memory_initialization_vector=
1111111000000100111111100000000011111100000000000000000011111100000000001111110000000010000000000000000000000010111111100000010011111100000001000000010011111110000000000000000000000000000000000000001000000010111111000000001000000010000000100000010000000100,
0000001011111010111111101111110011111100000000101111110000000100000000001111111011111100111111000000010000000000000001001111101000000100000000000000000011111110000001000000010000000000111111100000001011111100111111001111111000000010000001100000000000000100,
0000101011111010111111100000010011111110000010000000100000001000000001101111111011111110111110001111110000000100111111000000000011111010111111000000100000000100000000100000010011111000000001000000011011110110111111001111000011111010000000101111110011111110,
0000000000000100111111101111111000000110000001001111110000000010111111100000001000000010000000001111110011111100000000001111110011111110111111101111111000000000000000001111111000001100000000100000001000000110111110100000001000000110000001100000000000000000,
1111111011111110000011100000110000001000000000000000000000000110000001000000001000001100000000000000010011111010111111101111110000000000111111001111110011111010000000000000010000000000000010000000000000000000000000000000000000000100000000000000000000000000,
1111011000000110000000100000001011111110111110101111110011111100111110100000001000001000000010001111110011111110111110000000011000000100111111001111100000000010000000000000000011111100111110101111101000000010111100100000010000000000000001000000010000000000,
0000000000000010111111000000000000000010111111101111110000000100111111001111111000000010000000000000001000000010000001000000011011111100000000100000001011111110111111101111111000000100000000000000001000000000111111001111111000000010000000000000010011111110,
1111110011111100000010000000110011111110000000101111101000010010111111101111110011111100111101000000010011111000000000001111111011101110111100101111110011111100000101000000101011101110000000000000000011111100000001100000110011110100111011001111011000000000,
0000001000000000000010000000100000000010000000000000000000000000000000001111110000000110111111100000000011111110111111000000001000000100111111001111110000000010000000000000001011111110000000001111110000000000000000000000010000000010111110000000010011111010,
0000010011110100111111000000000000000000000001001111110000000000000000000000000011111110111101000000010000000100000000001111101011111000000001000000010000000000000000000000000000000000000000100000000011111010000001100000010011111110000000001111110000000010,
0000010000000100111111101111101011111000000000100000100000000110111101100000100000000000000011001111100000000110111110101111110000010010000001001111101000000010111111001111110011111000111111001111100000001100111100000000100000001010111110000001000011111110,
1111110011111100000011100000011000001100111111001111110000000000000001101111101000001000111111000000101011111000000000001111101011111100111110101111111011111110111111001111110000000100000010100000010011111110000000100000000011111110000010000000000011111110,
1111010000000000000011000000110000000100000010001111101000010010111110001111110011111010000000100000101011110100111111000000011011110110111100001111100000001000000100000000111011110110000000000000010011111010000000100001001011110100110111001111110011111000,
0000000011111000000010100000101000000100000010000000001000001100000000001111110011111000111101000000010011110100000000000000011000000100111111000000011011111100111111000000111011110110000000100001000011111010111110000000011011110000111011101111100000000100,
1111110000000000000100000000101000001110111111000000000011111100111110100000000000010000000000001111110011111000111111001111111000000000111101101111110000000010000001001111101011111100000000001111110000000010000001000000010000001000111111000000000011111010,
0000010000000000000000001111110000000000000001000000000011111100111111101111111011111100000000100000000011111110111111101111101000000000000001000000010000000000111111000000000000000000000000100000000000000100000000000000000000000100000001001111111011111110,
0000000011111100000001000000010000001000111111100000001000000100000000001111110000000110000001000000001011111100000001000000001000000100000000000000000000000010000000100000000000000010000000000000001000000100111111000000010000000000000001100000000011111100,
0000001000000010000001000000010000000100000001001111101000000110111110101111111011111110111111000000000000000100111111000000101000000000111110100000001000000000000010000000010000000000111111001111111011111010000000100000100011111010000001001111111011111110,
0000100000001100111101001111011011111110000010000000100011111100111101100000010011111100000000101111110000000100000010101111110000000010000000000000100000000000111110101111111000000010111111100000110000001110000000000000001000001000111100000000010000000100,
0000000000000000000000100000001000000000000000001111110011111010111111001111111000001000000001101111111011111110111111101111101011111110111110100000001000000110000000000000000000001000000000101111110000000000000000000000010000000100000010000000000011111010,
0000000000000010000001000000000000000110000000101111111011111010000000001111111000000010000001100000000000000100000000101111110000000100000000101111111000000010111111000000000000000010000000100000001000000100000000000000010011111110000001000000001011111100,
0000000011111110000011000000110000001100111111100000001000001000000001001111111000001010000000000000001011111010000000001111111000000100111111001111110011111100000000000000000000000110000010000000001000000000000001100000010000000000000000100000001011111110,
1111100011111110000000100000010000000000111111001111110000000000111111101111111000000000000000001111110011111100111101100000000000000100000000001111100011111110000000100000100000000000111110101111101011111100111111001111110000000100111111001111110011111110,
0000011011111100000000000000000000000100000000100000101000000100000000000000011000000100111111000000000000000100111111000000111000000100111111000000000000000010000000000000100000000000000000000000000011111110000010000000000011111100111111001111110000000000,
0000000000000000000000101111111000000010000000000000001011111110111111001111110000000010000000100000001000000010000001001111111011111110111111100000011000000000000001000000001000000110111111100000010000000100000000100000001000000000000000000000010011111100,
1111110000000010000001000000100000000110111110100000001000000110000000000000000000001010000001001111110011110110000001000000001000000110111110101111111011111100111111101111101000000000000001000000000000000000000000000000010000000100111111100000001011110110,
0000000011111110111111001111110000000000000000001111110000000000000000001111110011111110000000101111101000000000000001001111111000000000000000101111111000000100111111001111110000001000000000001111110011111110111111100000010000001000000000100000011000000000,
0000010000000100000001001111110011111010000100100000100000000000111101000000110000000100111111000000000000000100000010000001010000000000000001000000110000000100111111000000110011110110000001000001000000000010000010100000010011111110111110001111101000001100,
1111100000000000000001000000100000000110111110100000000000000100000001000000000000001100000000001111111011111100111111100000000000000000111110000000001011111100000000100000001000000000111111100000000000000010000000000000000000000000000001100000010011111000,
0000010000000000000001001111111000000100000000000000010000000010111111000000010000000000000000100000000000000100000001000000000000000100000000100000001000000100111111100000011000000110000000000000010000000100111111100000000000000000000001000000001000000010,
0000101011111100000001000000010011111110000001000001010000000110111111100000001011111100111101000000010011111100000000100001011000001100111101000000100000000000000011000001000011101110000000000000011011110110000011000000101011110100111010001111011000000010,
0000010000000000000000101111110011111100000000001111111011111110000000101111110011111100111111000000001000000010000000101111110011111010111111000000011011111110111111000000010011111110000000000000010000000100111111100000010000000100000000100000000000000000,
0000011000000010000000001111110000000100000001101111100000001000000000101111111000000000111111101111111011111110000001000000101000000100000000000000001011111100000000001111111000000010000000000000000000000000000001000000010000000000000000000000000011111100,
0000010011111100000000001111111011111100000000101111100000000100000000000000010011111100111110100000000000000000000001000000001011111000000000000000001000000010000000000000000000000010000000001111111011111100111111000000010011111100000000100000001000000000,
0000000011111100000011000000100000000100111111101111111011111100000001000000001000000100000000000000100000000000111111000000000011111010111110000000000000000000111111100000010011111100000000000000000011111100000010000000100000000000000000101111101011111110,
0000010011111110111111100000001000000000000001000000000000001000000000001111110000000000111110100000000011111110000010000000101000000100111110100000101011111110000001100000000000001000000000000000011011111100000001001111110011111110111111101111111011111010,
1111110011111110000010000000010000000110000001000000010011111100111101100000011000001000111111100000000000000100111110001111101000000010111111101111110000000010000010100000110011110110111111100000001011111010000000100000101011111100111111000000000011111110,
0000000011111100000001000000011000000100000000000000010000000100111111101111111000001000000001001111111011111110111111101111111000000010000000101111111011111100000000001111111000000110111111100000000000000010000000000000010000000110000010001111111011111100,
0000010011111110111111000000000000000000000000101111110000000100000000101111110000000000000001000000000000000010000001000000010000000000111111100000000000000010000000001111010000000010111111000000001000000100000000000000011000000000000000000000010011111110,
1111110000000100000001001111110011111100000001000000000011111010111110100000001000000100111111100000000000000000000001000000000000000100111111100000000011111100000000100000000000000110000001000000000000000000111111100000000000000000000011000000000011111100,
1111110000000100000000100000011000000110000000000000001000000000000001000000001000001100000000100000000000000010000000000000000000000000000000100000000000000100111111101111111000000110000001001111111000000000000000100000001000000100000010000000010000000010,
0000010011111100111111001111111000000000000001001111010000000000000000001111110000000000000000001111101000000000000001000000010011111100000000000000010011111100000000100000001000000000000000001111111011111100111111100000010011111110000000000000000011111100,
0000010000000100111111001111110000000010000001001111110000000000000000001111110011111100111110100000001000000000111111101111100011110110000000000000010000000010000000000000010000000100000000001111111000000100000001100000010000000110000001001111110000000100,
1111110000000100111111100000010000000000111111101111111000000000111111100000000000000000000000100000001000000100000001000000001000000000111111000000000011111110000000001111111000000100111111001111110000000110000000100000010000000000000010000000010000000000,
0000000000000100111111100000010000000000000001000000001000000000000000100000001011111110000001101111111000000010000001100000000000000000000000100000010011111110111111001111110000000000000000100000000000000010111111100000010011111110000001000000011011111110,
0000000011111010000000001111110011111110000001101111110000001010000000000000001000000000000000000000000000000010111111000000010011111110000001000000000000000000000000001111110000000100000000000000001011111000000000000000010011111000000000000000000000000010,
0000001000000000000001000000010000000110000000001111100011111110000000000000000011111100000001000000001011111110000001100000000000000000000000000000010011111110111111101111101011111110111111000000010000000100111111000000001011111100000001000000010011111110,
0000011011110100111111001111110000000100000001001111110000000010000001000000001000000000111101000000010000000010000000100000000011111010000000000000001011111110111111000000011011111110000000000000100011111100000000100000001011111000111111001111101000000100,
0000011011111110000101000001011000001110000000000000001000000000000001001111100000001100111111000000000011110100111111001111111011111110111110101111111011111100111110001111110011110100000001101111111000000000000010000000000011111110111110001111111011110100,
1111111011111000000001000000001000000010000000000000000000000000111110100000001000000100000000000000011000000000111111001111111000000000000000001111100000000100000001000000001011111110111111001111011011111000111110100000001011111100000001001111110000000000,
0000011011111100111111001111110000000000000000101111100000000010000001000000000011111100000000001111110000000000000001000000010011111000000000000000000000000010000001000000000000000000111111100000010011111100000000000000010011111100000001000000010000000100,
1111100000000010000001000001000000001100111111000000100000001000111110000000001000000000111110100000010011111010000000000000010011111010111100100000011011111010000010000000101011101100000011100000101011110100000010100000010011111000110111101111100000000000,
1111101000000010000010100000010000001010000000000000001000000100000001000000001000000100000001000000000011111100111111100000000000000100111110000000000000000010000001000000010000000100000000000000000000000010000000001111110000000000000001000000010011111000,
1111101000000000000011000000110000000110111111100000000000000010000000001111101000001010000000000000010011110110111111001111111000000010111110001111111011111100000000001111110000000100000010000000000011111100000001001111111000000000111111101111110011111000,
0000010000000100111111000000000000000000000000000000000011111100000000000000001000000010000001000000000000000100000001101111110011111100000000000000010000000010111111100000000000000100000001000000001000000100111111100000010000000000000001100000010000000010,
1111111000000100111111101111111011111100000000100000000000000000000000101111110011111100111111000000001000000010000001101111111011111110000000000000000000000100111111001111110000000100000000101111111000000110111111100000011000000100000000001111111000000010,
1111101000000100000010000000011000000100111111000000010000000000000000000000000000001000000000001111110000000010111110101111110000001000111110001111110000000100000000000000001011111110000000001111101000000010000000100000001011111100000000000000000011111010,
0000001000000010000001000000000000000000000000000000001000000000000000100000000000000000000000000000000011111100000000001111111000000010111111100000000000000000111111101111111000000100111111100000010000000110000000100000010000000110000001000000000000000000,
1111111000000010111111100000000000000010000000101111111011111000111111001111110000000000000010001111100011111100111111001111110000000010000001001111110000000000111111000000000000000000111111101111101000001110111110001111110000010000000001000000011011111110,
1111111011111000000011100000110000010000111110101111100000000000000011001111100000010000111111100000110011110010111111001111110011111010111100000000001011111010111111101111100000000100000010000000000011111100000001101111110000000000000001101111110011101110,
0000001011111110000001000000010000000000000001100000001000000000000000000000100011111110111110100000010000000010111111000000100011111000111111001111110000000100000000100000011011111000000001000000011011111100000011000000011011111010111110101111011000000000,
1111110000000010000000100000011000000010111111001111111011111100111111100000010000000010000010000000000000000010000000100000000000000100111111101111111000000000111111101111101000000100111111100000000000000100111111000000010000000010000001000000010011111100,
0000000000000100000000100000000000000010111111000000001000000000111111100000001000000110000000101111111011111100000000001111101000000100111111000000010000000010000001000000001000000100000000101111111000000110111111000000000000000010000010000000010011111110,
1111100000001000000001000000000011111100111111000000100000001000000000000000001011111100000000101111100000000010111101100000100000000010111111001111010000000110000011000000110011110110111110001111011000000000111111100000000011111000111101101111110011111110;
