memory_initialization_radix=2;
memory_initialization_vector=
000000000000000000000100,
111110000000000011111110,
000001000000001011111010,
000001000000000011111100,
000000100000000000000000,
000000000000000000000000,
111110100000000011111110,
000000101111111011111100,
000010000000001000000010,
111111100000000000000000,
000001000000010000000000,
111110000000010000000000,
000010000000000000000010,
111110100000000000000000,
111110001111110000000000,
000000000000001011111110,
111111100000001011111010,
111111000000000000000100,
111111101111110000000010,
111111001111110011111100,
000000000000000011111100,
111110101111101011111110,
111111000000000000000100,
000001000000000000000100,
000000001111111000000010,
111101000000000000000000,
000001000000000000000000,
111111001111111000000000,
111110100000001000000010,
111111000000010000000100,
111111100000001000000000,
111111001111110000000010;
