memory_initialization_radix=2;
memory_initialization_vector=
1111100100001000111110100000010011111111000001000000011011111011111001011111111011111110000000100000000000000101111110001111001111111000111110110000000100001010000001011111100011111011000010011111110000001000000000000000101000000100111101000000001011111101,
0000100011111001111111010000111111111110000000000000100000000000111001100000110111111111111111010000110111111110111110100000010011111101000000110000101111111111111111010000001000000101111111000000110100010000000011000000001100000111000001110000011100000011,
1111110000000011000000110000000011111101111110001111000100000111111011110000010000000110000000010000011100000110000010110000011111111011111101111111110100000110000000001111001011111111111110110000100011111100111101000000010011111111111110111111101000000001,
0000101011111000000000100000011100001011111111010000000111111110111011010000010111111111111110011111011100010101000001111111101100000010111111100000001100000010000001010000000000001001111111010000000111111011111100010000101000000001000011000000000111101001,
1111100111111110111101100000100111111110000010010000011111110100111111000000100000000011000010001111100111111111111111101111100111111001111100111111100100000011111111011111011100000101000000110000011000000111111100011111100000000010000001100000111011110111,
0000001011111110000000100000011100000100000000000000001011111111111100001111001111111110111110101111011000001100000000110000011111111001111110001111010100000110111110000000010011101101111100010000000011111001000000100000001011111110111011111111001100000000,
1111001100000101000001100000011000000110000000001110111000000011111100110000000100000111000010010000101111111010000000011111111011111000000000100000010111111010000001010000001111110010000000110000001000000010111111100000100011110010111110110000101000000011,
0000100011110100111111101111010011111110111110001111110100001001111001001111010011111111000001101111101100000100000000000000011111111110111110001111111100000001111110110000100000000011000001110000001111110111000001010000011000000100000100111111000111101100,
1111111011111100000001000000010111111110000001001111011011111100111111110000011000001000000000000000001000000011000001001111110011111100000000001111010011110101111101010000001000000010000000010000110111111011111111001111111111111011000000001111110111111100,
1111000011111010000001010000000100000000000000111111010111111010111101100000001100000100111111110000010100001011111110110000010100000110000000101111101111111000111110100000000100001001000001000000010100000111111111100000000011110001000001001111101000000100,
0000011011111001111110111111000000000011111101100000000000000110111100011111111100000010000010110000000000001000000000010000110100000101111101100001000100000010111110101111100000000001111111011111011111111011111111110000000111111111111110110000001011110101,
0000111011111100111110110000100011111011000001110000011000000111111000110000001000001000000001011111100000001110000001000000010100001010000010000000100111111001111110100000001000000000111110011111111111111101111100110000010000000101000001011110101111101111,
0000110000001001000000011111101011110111111111010000111000001001111001000000001011111111000001010000000111111111111101010000010111111110111111110000010011111000000010001111111011111110000010000000101100001000000001110000000000001100111111010000110111110100,
1111110011111011111111001111111000000110000001101111101000000011111111010000111011111001000001010000001100000100111110100000110100000111111111000000000011110111000000010000110100001101000010000000011011111011111100101111110111111110000000111111100100000000,
0000011100001101000010111111110111111111000000100000000000001001111000111111101111111100111101000000101000000010111111111111101100000011000001011111111111111111000000111111101011110010111101100000101011111010000010001111101000000111000010110000000000000001,
0000010111111110111111010000010000000110111101110000011100010001110101111111010100000010111111111111110000000100111111100000000011101011000000010000000100001100111110110000000111111011000000000000001111111100000010011111110100000111000011101111111111110001,
0000111111111001111111010000101011111110111110110000111100000111111000011111110100000001000010001111110000001001000000101111111000001001111100000000001111110101111110110000100011111011111111101111101100000011000000111111110111111111000100011110010011101011,
0000101111110100111111001111011011110100111011010000001100001110111001100000111011110111000000110000001100000000111110011111110111111010000010110000110100001111000001110000101011110101111111011111110011101100000011010000111000000001000100001111011111100111,
1111100011111000000000001110111000001000000001000000100000010010111100001111000011111011000000111111110000000010000001000000011100001110111111010000001011111110111101101111111111111001000000011111011011111110111101100000100011111010000011001111001111110001,
1111100000000010000000010000011000001000000001111111011011110101111101100000011011111100111111101111110011111110000000010000011111111001000000101111101111111010000010100000000011110111111111100000001111111000111011000000010111111010111101111111101011111000,
0000110011111101111111100000100100000001111100110000001111111000111110111111100000000101111111110000000011110111000000110000101011111011000000011111110100000110000000001111011111111001111111110000011011111001111111011111111000000111000000101111100011111011,
0000010100001010000000011111111000001001111110110000011000000100111010011111101111111111000010010000010100010001000011001111101100000010000000100000101011111010111111100000010100000001000000101111110111110110000001110000001000000001000000111111001111110100,
0000000000000011111111000000100100001001000000110000001000000100000000110000001100000100000001111111100111111111111111101111000100000110111110101111001100000010111111000000011011110010111110100000101000001000000001000000000111111110000001100000000100000001,
0000010111111001000001101111111011111111111111110001011000000010111001110000101000000101111111000000010111111001111110000000000000001010000001000000011100000011000010010000001111111110000010100000001100000111000000001111100100001100111111010000001111110100,
1110110100000001111101110000100000000000111111111110110111111011111101011111111111111010000001110000001000000111000001110000001011111110111111101111101111111100000000011111011100001001000010010000010111111110111111000000101111101111111111111111111011110101,
0000100011111110111110100000001111111100000010101111111011111101111111111111110100000100000001111111101111111110111111010000001111110011111111001111111100000110000000110000010100000101111100010000100011111100000001110000000111110111000001101111111111111010,
0000111000000001000001011111110000001010111100010000110000001000110110111111101111111111111110110000010000000101000001010000010000001001111110101111101000001101000010010000011111111111000001011111010111111010000010011110111100000110111111011111100111111001,
0000001111111101000001001111110011110110000010001111101011111100111101011111101100000100111111011111100100000011000000111111111011100101000001101110111000000100000001000000100011111110111111110000010111111010000000000000100000000000111101011111100111111000,
1111100111111101111111000000100100000110111110011110011111111001111101101111110011111110000001010000010111111000000001011111100111110001111110111111001100000100000000100000010000000001111110010000100000000011000000000000100011110101111111000000001000000010,
0000001111110111000000101111110011111100000001010000011000001110111100100000001100000000111101110000010011110111111011100000011100000011000000011111000011111000000000001111111011111000111111010000100000000000000010000000001000010000000010110000001111111001,
1111100011111111111111000000101000000110111111100000011100000001111101111111100111111101111110010000000111111000111111111111100111110011000010001110100100001110000001100000000000000111000010000000010111111110111101100000010111111100000000001111111011110111,
0000010100001011111110010000011011111010000001000000100000001010110110010000001011111010000001001111100000000101000001100000011100001011000000000001000000000010111101111111110111101111000011011111010100000001000010010000010000001110000010001111011111101011,
0000000000000110111111101111011000000110111111001111110100010010111100100000000100000010111110100000101011110110111111010000001111110101111110100000010000000101000011100000110000000000000001000000011011111001000001001111101100000010000001110000010100000010,
0000111111111101111111101111111011111011111111101111100000000111111100011111110100000101000010001111111000001000000001110000001111110001111110011111111000000111111100110000010000001100111111010000011111111100000001100000010100001101000000001111000011110100,
0000011100000111000000001111010111111100000000000001110011111111111100011111111100000111000010001111011000000000111111110000010100010001000000101111110100001010111111000000011111111010000000100000000011111100000000011111100011111111000001101111110100000000,
1111001100000010000001110000100011111111111110000000010011110010111110101111111011111111111111011111101100001010000000001111111100001000000000001111011111111111000000110000000111111011000000100000000111111101111111110000001111111110111111011111100111110110,
0000110011111110000001000000010011111101111111000001101000001000110001100000001011110110000010011111111000000110000000110000001100000011000001110000100111110110111101010000000111111101000010110000000100000000000011100000000100001101000000111111010011100110,
1111110011111110000001111111111011110000000001010000100000000110111001101111110111111101000001001111101100000101000010001111101111111011111111000000010011111001111101110000101011111001111101011111111000000000111011000000110100001100000010101110110111101111,
1111001100001100000010010000011000001001000011001111010111110111111100000000010111111100000001101111111111111101000010001111110011110000000001010000001111111001000000101111110100000011111111000000001011111101000001001111111111111000111110110000011100000011,
0000010111111001000010000000011111110111111110000001001100000010111011001110111011111110111111000000101100001010111111011111001000001110000010010000010111101111111110001111111111110111111101011111100011111001000100101111111111111001000010000000001011111010,
0000001111111100111111110000001100001101000010101111111000001111111001010000010100001100000000001111111100001110000001011111011000001001111110100000110111111100111110100000001000000101000001000000000100000001000001100000011000010110000000110000000011110001,
1111111000000100000000010000101011110111000000011111010111111111111110011111111100000000111110100000000111111110000010000000000111111000000000101111110000000110000100000000010111111010000000001111110000000000111101000000011000000000111110001111100111110110,
0000100011110101111110001111110100000100000001010001010000000111111101011111010000000110000000101111011100001011000011010000000100001001111101000000011111111000000010010000011011110101000000000000111100000010111111011111011100000100111110001111011111110111,
1111110000001001000001110000011111111100000001000000100000000001111011110000000011111000000000101111101000000000111110100000001000000011000000101111110000001100111111100000001000000000000001110000011000001000000010010000001100001010000000111111110111110110,
0000100011110010111110000000100011110101000000010000000000001011110111110000011011111110111110111111100000010000000001000000010100010001111111100001001100001010111111000000110111111001000000010000001111110101000000110000010100001111000010001110111011101010,
1111010011111110000001000000010000000101000000101111100011111110111100110000010111111101000011001111110111111111000000100000110011110111000000101111110000000010111011110000000000000011111101110000001100000010111110111111111000000001000000101111111011111101,
0000000111111010111110111111110100000100111111101111101011111011111001011111000100001010000010011111110000000011000000010000011000001111000001000000011100000111111110001111110011111111111111101111110100000010111111011111111000000011111101111111000011101110,
1110110111111011111110100001000011110101111110101111100100000000111110000000011100001010000010001111111100000001000001011111101011101111000001111111010111111101000010111111011011110101000000011111110100000100111111011111101011111000111100000000011000000100,
0001001100000110111111101111110111111011111101110000010100010010111011111111110011111100111111101111101000000101111101000000010011110100111110000000010100000110111110110000011011111001111110101111110011111001111111101111110000001011000011001110111011110111,
1111011100001010000001010000011111111010000001101111001000000110111111011111110111110001111111010000111100000001000000000000100111110100000000110000010111110011000000111111011011111111000001010000010111110111111110110000001000000111000000100000000111111100,
1111110100001000000001100000010000000011000000001111110011110111111111110000010011111001000010000000011100001110000000000000011111110000000001011111010011111101000001011111111000000100111110010000011000001001000100010000010111111000000010000000010011111101,
0000011111110111111111001111011100000110111100110001000100000000110111100000010011111101111101110000000100010100000001010000011100001000000000000000110100001001000011000001001000001001111111100000100011110011111111000000110000000111000010100000001011101010,
1110100011111101000001100000111100000000111100100000000011111100111011110000001000000101111110001111101111111000000001101111100011111110000001101110101000000111000010000000010011111001111110101111101111111001111101100000010011110000111110000000000011111111,
1110000011111001000000000000010100000110111101101110110111111001111110101111110000000010111111110000001111110101000000111111110111111000111111011110100000000011000001110000011011111011111110010000011100000011111111110000001011100000111111011111100100000000,
1111111100000000111111010000000111111110000001001111011011110111111100001111101011111100000000100000001000000111000001001111101011110110000001101110111111111011000010001111011100000111111101100000011000000001111110110000100011101100111110111111110011110011,
1111011100000000000000010000011111111001111111001111011000000001111101110000001100000000000010101111100100000100000001111111110111110111000010100000100000000001000001111111100011111000111101100000110111111011000001010000100011110101000000010000011011111111,
0000010100000111000000111111001111110110000010000000011100000111111100010000100000000101000010100000010011111101000001100000010000000001000000010000001111111100111111111111110011111001000000010000011000001001111011110000001100001001000010010000000000000100,
1111110111111001000000100000010111111110000001001111111111111011111101101111010100000001000001101111110100000110111111001111111100000000000001100000100100010000111111011111101100000111000001011111100000000010111110000000111111111001000001011111010000000011,
1111100111111010111110011111110011111100111110101111101100000011111011011111010000001101000010101111110100001101111110000000101000001110111110010001010000000011111110001111101111111011111110100000011111111101000000011111100100000101000010111111101100000110,
0000001100000010111111111111010100010111111110110000001011111011111011101111100100000011000101111111100111111100000000101111111111111011111100110001010111110101111100101111000000001101000001101111010100000000111010000010000100010011000001001111111011111000,
0001000000000001111101100000101000000001111110110000100000011000111000101111111111111110000000011111101100000101111110110000010000001101111101100000011100000101111111010000100000000001111110100000100011111011000001111111101100000011000010001111100111110100,
0000011111111111111111111111110000000010000001000001010100010011110111001111011111111111111111100000000000001111000000011111101100010001000001001111111011111010111110000000110011110111111110001111110111111111000010100000111100010000000001011111010011110000,
1111011000000111000000110000110011110110111110101111010000000010111001001111110011111110111111010000000000000011111111110000011000001001111110111111100011111000000000000000000111110101000001000000011011111100111111100000000111111110000001101111100011110101,
1111101000000111000001101111100000000110000000110000010000000000111001000000001111110011000010000000110000000011111101001111101100001011000010111111011100000101000000101111010000000101000001010000010011111110111110111111010100000001000000101111101111111011;
