memory_initialization_radix=2;
memory_initialization_vector=
00000100111111000000000000000000000001100000000000000100000001100000011000000100111101100000011000000100000001101111111000000010000000001111110011111110000000000000000000001010111111000000101000000100000000000000000000000000000010000000001000000010000000000000001011111110000001000000010000000000000000100000001000000100000000100000000000000010000000100000001000000010000000100000000000000110000000000000010000000000000001000000010011111100000000000000001000000100111111100000011000000010000000000000000000000010,
00000100000000001111111000000010000010001111111000000010111110100000100000000100111111100000100011111100000001000000000000000000000010000000010000000000000000000000001000001000000000100000000000000010000001000000001000000100000001100000000000000100000000000000000011111100111110000000010000000100000000000000001011111100000001000000000011111010111111000000010011111010000000100000000011111100000000000000001011111100000010000000010011111100000000101111111000000000000000100000101000000100000000100000000000000000,
00000100111111001111110000000000000010001111111000000010000010000000011000000000111101100000011000000000000000001111110011111110111111100000000000000000000000000000011000001000000000000000011000000010000000000000010011111110000000100000001000000010000000000000001011111100000001000000000000000000000001000000011000001000000000101111110000000000111111101111111000000100000000101111111000001000111111000000000011111110000001000000100011111100000001000000010000000110000001000000100000000000111111100000001011111110,
00000010111111100000000000000010000001001111110011111100000000000000100011111110111111100000100000000000111111100000000000000000000001000000001011111100000000100000001000000100000000001111111000000000000000000000100000000000000000000000000000001000000000100000000000000000111111000000000000000100000000000000001000000100000000000000000011111100111111100000001000000010000001000000001000000100000000000000010011111100000001100000100000000010000000001111110000000000000000000000100000000110000000001111111000000000,
00000010000000101111110000000000000001000000010011111110111111000000100000000100000010000000100011111110000001101111111011111110000001001111111000000000000000100000001000000100000001000000011000000000111111100000010000000000000010001111100000000100111111000000001000000000000010000000001011111110000000001111111000001000000001000000100011111110000000000000000011111110000000100000000000000010000000000000001000000000000010000000100000000000000000100000010000000000000000100000100011111110111111000000000011111110,
00000010000000001111100000000000000010001111111000000010111111000000100011111100111111000000011011111110000001101111111000000100000001100000001011111100111111101111111000001000000000000000010000000000000010000000000000000100000001000000000000000100111111000000010011111100000000001111111000000100111111000000010011111100000000000000000011111100111111000000000011111010000000001111111000000000000001001111110000000000000010000000101011111110000000001111110000000000111111000000101000000000111111101111110000000100,
00000010000000000000000000000000000010101111111000000100111111000000001011111110111111000000110000000000000000000000000000000000000000100000010000000000000000100000001000001100000000000000010000000000000000000000000000000100000010000000000000001000111111101111110011111110000011001111111000000100000000000000010000000100000010000000010011111100111111100000000011111000000000000000000000000110000001101111111011111100000000100000100011111110111111000000100000000000000000000000110000000010111111100000001000000000,
00000000000000000000001000000010000010000000010011111110111111100000011011111110111110100000100000000000000001000000001011111110000000000000011000000010000001000000011000000110000000100000011000000010000000000000001000000000000001101111111000000110111111101111101000000010111111101111110000001000000001101111110000000100000010000000000000000000000000000000000011111110000000001111110000001010000001100000000000000010000001000000110000000000000000000000010000000100000000000000110000000100000000000000001000000100,
00000110000000000000010000000010000010100000000000000000111110100000001011111110111110000000111011111000111110100000011011111100000001100000010000000000000010000000000000001000000001000000000000000000000000001111110011111110000010001111110000000010000000001111110000000100000010000000010000000100000001101111111000000100000010000000001000000010111111000000000000000100000000000000000000000000000001000000001000000100000001000000011000000000111111000000100000001000000001100001000000000010000000000000001000000010,
00001000000001000000001000000110000010001111111000000010111111000000010011111110111111100000100000000010111111100000001000000000000000100000010011111000000011000000001000001000000000000000100000000110111110100000000000000100000001000000010000000000000001100000000000000010000010000000000011111100000001000000000000000100000010100000000000000110000000000000001000000100111111101111110000000100000000101111110000000010000010000000110000000010000000000000100000000100000000000000101000000100000000100000100000000000,
00000100111111100000010000000010000001100000010011111110000000000000000011111100111111100000100011111110000000000000001000000110000001000000010000000000000010000000010000001000000000100000010000000000111110100000010000000010000010000000010011111000000001101111110011111100000001000000001000000100000001101111110000000110000001101111110000001000111111100000001000000100111110101111111000000010000001000000000000000110000001000000101000000100000001000000100000000100111110100001000000000110000001000000010000000100,
00000100111111100000011000000100000011000000000000000000111111101111111011111000000001000001001000001010000001100000001000000110000001001111111011111110000011000000011000001100111111000000001000000100111111100000001000000010000010100000001011111100000000000000000011111110000000101111110000000000000001100000000000000100000010101111111000000100000001100000001000000000000001000000000000000000111110100000000000000110000010000000111000000100000001000000010000000100111111000001010011111100000001000000010000000100,
11111110000001000000000011111110000010000000001011111110000001001111110011111100111111100000111000000000000000000000010000000010111111101111100011111100000000100000001000001010111111000000100000000100111110101111110000000000000000100000010000000000000000000000000000000100000001001111111011111100000000000000010000000100000010001111111000000000000000100000011000000000000000000000000000000100111111000000000000000100000001000000100000000110111111100000010011111110111111000000111011111000000001100000010000000000,
11111100111111101111110011111100000011000000001011111100000010001111111000000000111011100001001011111110111110000000001000000010111111101111001000000000000000100000010000001100111110100000011000000000111111101111110000000000000001000000010000000110000000000000010000000000111111100000001011111110000000000000001000000100000001000000000000000010000001000000000000000010000000000000000000000000111110000000010000000110000010000000111000000100000000000000100000000010111111100001011011110100000010000000000000000000,
00000010000000100000000000000000000010001111111000000000111110101111100011111110111101100000110000000000000000101111100000000100111111101111100000000010000000000000001000001000000000000000001000000110111110100000010011111100000000100000001011111110000000000000010011111100111111000000010011111010000000000000000000000100000001000000000000000110000000000000000000000100000000001111111011110110111110100000100011111010000000000000010000000100000000001111100000000000111111000001000011111010000001000000000011111110,
00000010000000101111110000000100000010001111110011111110000010001111111000000000111101100000100000000110000001001111101000000010111110101110111000000100000000100000011000001010111110100000100000000110111110100000001000000010111111100000001000000110000000100000010000000000111110000000101011111110000000000000010000000000000001000000011000000010000010000000000000000000000000100000001011111010111110000000100011110100000000000000001000000100000000001111100000000000000010000000101011111000000001001111111000000010,
00000000000001100000011000000100000001001111100000000010111111001111110000000000000010100000110011111100000000001111110000000000111111000000000011111100111110000000001000001000000000000000000000000000000000100000001000000100111111101111111000001100000001000000100000000100111101100000010011111000000000000000010000000100000001000000000000001000000000000000000000000000000000000000011000000010111101100000000011111000000001000000010011111110000000100000000000000010000011100000011000000000000000101111111011111110,
00000000000000000000100000000110000001001111100000000010111101001111100000001000000011000000100000000010000001001111101000000000111111101111100000000010000000000000011000000110111111100000000000000000111110100000001011111110111111000000000000001000000001001111110000000100111111000000010011111000000000101111111000000100000001100000010000000010000001100000011000000010000001000000001000000000111110000000010011111100000001000000000000000110000010001111111000000000000001100000110011111110000001100000000000000000,
00000000111111100000110000000110000001001111011000000000111110101111110000000000000011000000011000000100000001001110101011111110000000001111010011111000000001000000101000000010111101001111100011111110111110000000100000000100111111100000010000000000111111000000000000000100111110000000011011110010000010000000001000000010000001000000100011111110000001000000011000001000000001000000010011111100111110000000100011111100000001000000000000000100000001001111111000000010000000000000010011111110000011000000001011111110,
00000100000000100000000000000000000001001111111000000100111101000000000000000000000001100000100000000000000011001111100000000100000000101111110000001000000000100000100000001000111110001111100011111100111111100000000011111110000001000000011011111110111111000000011000000100111101000000010011111000000001000000001000000000000001000000001011111100000001000000100000000010000001100000000011110010111100100000010000000000000000100000010000000100000000101111111000000000111111000000101011111010000000000000000000000000,
11111110111111100000010000000100000001101111111000001000000010001111101011111010111111000000010000001000111111001111100011111110111111000000000011111010111111100000010000000100000000000000011011111100111111000000001000000110000001000000010011111100111111000000100000000000111110000000001011110000000001000000010011111100000001001111110000000100000011000000010000001010000001000000100011111100111110000000000000000100000001000000010000000100000001001111110000000000111101100000010011111000000010100000000011111010,
11111100000000000000100000000010000001000000001000000010111110001111110011110010000001000000001000000110000000001111000011111100111111101111110000000100000001100000011000000100111111100000000011111010111110100000000011111110000000100000010000000000111110100000010000000010111101101111111011110100000001000000001011111100000001101111111011111110000001000000010000000010000010000000011011111000111110101111110000000110000000000000010000000100000000000000001011111110000000000000011011111100000001000000000011110110,
00000000000000100000000000000110000010000000011000001000111100001111100011111000000000100000011000000010000001001111000011111100000000100000001011111100000000100000100000001000000000001111110011111100000000100000011011110100000001000000001000000110000001000000001000001000111110101111110011111100000001000000010000000000000010000000010000000010000000000000001000000100000001000000100011111000000001100000000011111010000001000000001000000000000000001111011000000000111111000000110011110100000010001111101011111010,
00000000000001000000000000000000000011100000010011111100111110000000011000000000111110000001010011111100111111100000101000000000000000100000010000000010111111000000001000001100000000000000000000000000000100001111111011110000000001100000000011111110000001000000010000000100111100100000000000000000000010000000001011111100000010001111111011111110000001000000000011111100000001100000001000001100000011001111110000010010000001000001001011111110000000000000001000000010000000000001000011110110000001001111110011111100,
00000000111111100000010000000010000011000000110000000100111101100000100000000100111100100000101000000110111111100000011000000010000001101111101011111000111111100000011000001100000010000000011000000100000010101111110011111010000011000000000000001000000001000000001000000000111110000000000011110110000001100000000011111100000001000000000000000000111111100000000011111110000001000000011000010000000001001111110000001100000001100000110000000000000000000000010000000100000000000000110011111000000001101111111000000000,
00000000111111100000011000000100000011100000010011111110111111100000111000001000111111000001000011111100111101000000111000000100000010001111110011111100000001000000000000001110000001100000101000000010000011100000000011111100000010100000000000001000111111101111110011111100000001000000000000000100000001000000000000000000000010000000000011111110000001000000010000001000000000000000010000010100000010001111111000001110000011000000111000000000000000100000110000000100111111000001010011111110000100000000011011111110,
11111100000001000000000000000000000011000000100000000010111100000000100000001000000000000000101000000100111101000000010011111110000011000000100011111000000000000000000000001110000000100000010000000010000010000000010011111100000010000000010000000100000000000000000000000010000010001111111000000100000011000000010000000100000010000000000011111100111111101111111011111110000001000000001000001100000011001111111000000110000010000000111000000010000000100000100000000000111101100001000000000010000001000000010011111000,
00000100000001001111110000000100000011100000010000000010000000000000101000001000111111000000111011111000111101100000111000000000000011000000010000000100000010001111110000010000000000100000010000000000000100000000001011111110000011000000000000001000111111100000000011111100000001101111111000000110000001101111110000000010000001001111110000000000000001001111110011111010000000001111110000010000000010001111110000000100000010000000110000000000000000100000010000000000111110000001000000000010000000000000010011110110,
11111100000000100000000000000100000011100000110000000000000001000000101000000100111011100001000011111000111110100001000011111110000010000000100011111000000001101111101000001100000000100000101000000000000011001111111000000000000010000000000000000110111110100000000000000000000010001111100000000100000000000000001000000000000010001111110000000010000000001111111000000000000001001111110000001100000001101111110000001000000011000001000011111100111111100000110011111100111111000001010000000000000000000000001011110000,
11111100000000001111110000000000000011000000100011111100000000100000011011111110111100000000101000000000111101000000111011111010000010100000011000000000000001101111111000001000000000100000100000000000000010100000000000001100000011001111100000001000111110101111101000000000000010101111101000000010000001001111110000001000000011000000000000000000000000100000000011111110000000000000000000010100000100001111110000000000000010000000110011111110000000100000111000000100000000000000111000001010000000000000010011110100,
00000000000010001111100000000000000011000000110000000100111111100000000000000110111100100000110011111100111111100001000011111110000011100000011000000000000010000000001000001010000001100000001000000010000100001111100000001000000011100000000000000000000000001111110000001000000001001111110000001000000010101111111000001100000010000000011000000010000000001111110000000000000001000000001000000010000010101111100011111110000010000000110000000000111111000000100000000000111111000001000000000010000000000000011011110100,
00000100000001101111101000000100000010100000101000000010111111000000011000000000000000000000110000000000000000000000110000000000000010000000100000000010000001100000001000001100000001000000001000000100000100001111100000001010000011001111101011111100000001001111101000000110000001000000000000000110000010001111100000001010000001100000100000000010000000001111110011111110000001000000000000001000000010001111111011111010000010000000101011111100111111100000100000000000111111000000111000001000000000000000001011110110,
00000100000000001111110000000000000011100000011000000010111111000000100011111110111101000000111000000000000010000000110011111110000000100000011011111110000001000000000000010000000001000000010000000000000001100000000000000110000010000000001011101110000000001111110011111110000010001111111000001000000000000000000000000110000000100000000011111100000000000000011011111010000000100000000000001110000000100000000011111000000010000001000000000000111111000000001000000000000000000001011000001010111111000000000011111010,
00001000000001001111100000000010000010000000010011111110111111000000011000000000111100000001000011111100000001100000000000000100000010001111111011111110000010000000011000001110000000100000001000000010000001001111111000000010000010000000001011111000000000000000001011111100000010001111111000001100000001100000000000001000000010000000011000000000111111001111111000000010000000001111110000000100000000000000010000000010000010000000110000000000111111000000000000000100000001000000111000000100111111000000000000000000,
00000000000001001111110011111110000011000000001011111110000001000000100011111110000000000000111000000000000001100000100011111100000000001111110000000000000000000000010000001010000001100000011000000000000000101111110000000110000010000000010000000000000000000000001011111110000001100000000000000010000000000000011000000000000000001111111011111110000001100000000011111100000001000000001000000100000000100000001011111110000010000000100000000000000000000000010000000000000000000001001011111100111111100000000011111110,
00000100000001000000010000000110000011000000001000000000000000000000100000000000111111000000110011111010000000000000110000000000000001000000000000000000000010000000010000001010000001000000100000000000000010001111111000000110000001101111111011111000000001001111110000000100000010100000010000000110000010001111110000000110000001101111110000000100000000001111110011111100000010000000000000001000000000001111110011111110000001000000110000000010000001000000000000000100000010000000111000000000111111100000001000000100,
00000010000000000000011000000000000011000000000000000100000001000000100011111100000001000000100000000110000001000000101011111110000001101111111000000010000001000000101000001000000000000000011000000000000010101111111000000000000001101111111011111110000000100000001000000110000011100000010000000110000001001111111000000000000001000000000011111100000000100000001011111100000010000000010000001000000001101111111011110110000001100000100011111100000000100000101000000000000001000000101000000010111111000000000000000100,
00000100000000101111111011111110000010000000010000000000111111000000001000000000111111000000111000001000000001100000110000000010000001001111110000000110000000000000011000001000111111100000010000000100000001001111110000001000000010100000001011110100000000101111110011111100000010100000000000000100000000000000001000000000000000101111110011111010111111000000001011111110000010101111111000001000000000101111110011110100000000000000100011111100000000100000010000000000111111100001000000001000111111001111110011111100,
00000000111110101111111000000010000001100000001000000010111110100000001011111100111111100000101000000100000001000000100000000010000001000000000000000010000000000000010000001010111111000000000000000010000000100000001000001000000010000000000011111010000001100000000000000010000010000000001000000100000001000000001000000000000001100000001000000000000001000000010000000010000001000000000000000100000000001111111000000000000001000000011000000100000001000000001000000100111110100000101000000010000000100000001000000100,
11111110000000000000010000001000000011000000001000000000111110000000011011111100000001000000100011111010000001000000101000000100000001100000000000000010000010000000010000001100111111100000001011111110000010000000010000000100000010101111110000000100000001000000010000000000000011100000001011111110000001000000010000000000000010001111111000000100111111100000001011111110000001001111101000000100000000100000001000000000000000000000010000000100000010000000011000000100111111000001000000001100000000000000100000000000,
00000000000001000000001000000100000011000000011000000010111101100000101000000000111111000000111011111100000000100000110000000000000010000000000000000100000001100000010000001100000000000000011000000010000010000000100000000010000001101111111011111100000001000000001000000000000001000000010000000000000010000000010000000000000001001111110011111100000001000000010000000010000001001111111000001000111111100000000000000010000000100000011000000000111111001111110000000010111110000001000000001000000001100000010000000010,
00000100111111000000001011111110000011000000010000000010111101100000110000000100111110000001000011111010000000100000110000000010000001100000101011111110000001000000000000001100000000000000001000000000000010000000100000000000000001000000000011111000000000100000000000000000000000000000000011111010000001100000000000000010000001000000001000000010000000000000001000000000111111101111110000001110111110100000000000000100000001000000101000000110111111000000000000000110000000000001000000000110000000100000001011111100,
00000100000000000000011000000110000010100000010000000100111110100000100000000000000001000000110011110110000000000000011000000010000000100000100000000100000001001111101000001010000001001111110000000000000001000000100011111100000010000000000011111000000000100000000000000000000010000000010000000000000001100000010000000010000001000000010000000100111111100000000011111100111111001111111000000000111110100000011000000110000010000000100000000000000000001111110000000000000001100000111000000000000000000000001011111100,
00000000000001000000010011111100000011000000000011111100000000000000100000000010000000000000110000000100000010100000010000000110000001100000010011111100000001100000000000001010000001000000010000000000000010100000001011111110000011000000010011110010111111100000001011111010000001100000000011111000000001100000000000001000000001000000001011111100111111100000001011111100111111101111110000001000111111000000000011111100000010000000100000000100111111100000001000000010000000000001000011111110000001000000100011111100,
11111100000001100000100000000010000011000000000000000000000001001111111000000010000001000000110000000000000001100000100000000100000001001111111000000000000000000000001000001000000000100000000011111100000011000000000011111110000010100000010011111000000001000000000000000010111101100000000011111100000001100000001000000000000010000000010000000010000000000000000011111110000001101111111011111110111111101111111011111110000001000000100000000100000001000000000000000010000001000000110000000000111111100000011000000010,
11111110000001000000001011111100000001100000000011111100000000000000100000000100111111000000101011111000111110000000010000000000000001100000001000000000000000001111111000001100000000100000100011111100000100000000010000000000000001101111111011111100000000000000000000001000111111100000011000000010000001000000000000000100000001100000000011111100111111100000001011111100000000000000000000000000111111100000000000000000000001000000100000000000000001001111111011111110111111100000111011111010000001000000011000000000,
00000010000001000000010011111100000010101111111000000000000000000000010000000000000001100000110011111100111110101111100000000000000001000000010000000010111111000000000000001100000000100000101000000010000010100000001011111010000010101111111000000000000000001111110000000000111111000000001011111100000010000000001000000100000010000000001000000000000000100000011000000010000000100000011000000000111111000000000011111100000001000000101000000010000000100000000011111110111111100001000000000000000000100000100000001000,
00000010000000100000000000000000000011001111110011111100000001000000011000000110111101000000111011111100000000000000000000000100000000001111011011111010000000001111111000001110000001100000011000000100000011100000000011111010000001100000000011111110000000101111111000000010000001100000001000000010000001000000000000000010000010000000000000000100000000001111110011111100111111101111110000000100111111000000001000000100000010000000110000000100000001000000001011111110111111100000111011111000000001000000010000000100,
00000110000001000000010000000100000011001111110000000100111111000000001000000110111110000000110011110110111110101111110000000100000001001111111000000000000001100000000000001000000000100000001000000010000001100000010011111010000001001111111011111100000010000000001000000010000000000000000000000010000010000000001000000110000010000000011000001000000001001111110000000000000000000000001011111100000001001111111000000100000000000000011000000000000000101111111000000000000001100000110011111010000011000000001000000110,
00001010000000000000000000000010000001001111101000000000000000101111110000000100000001100000010000000000111101001111111000000000000000100000000011111100000000000000000000000110000000000000001000000000111111000000011000000000000000000000000011111100000001001111110000000100000000100000000011111100000001100000000000000000000000000000010000001010000000000000010000000000111111000000011000000000000000000000011000000000000000101111111000000010000001001111100000000110000001000000011000000000000011000000011000001000,
00000100000000100000000000000000000001100000000000000000000000100000000000001000000000000000011000000000111110000000001000000110000001100000000000000100000001101111110000001000000000100000001000000010000001000000011011111110000001001111111000000010000001100000001011111100000001100000001011111100000001000000001011111110000000100000010000010000000001100000000000000010111111001111111000000010000000000000010000001010000001000000100000000000000001101111110000000100000001000000100000000100000001000000101000000110,
00000100000000001111111000000000000001101111110000000010000000000000000000000110111101100000011000001000111111000000001000000010000001001111100000000110000000001111111000001000111111000000010000000100000000100000000011111000000010000000000011111000000000001111111011111100000000100000001000000000000001100000000000000000000010000000001000000110000000100000010000000000000000101111111000000000000000000000000000000010000001000000001000000010000000101111110000000010000000100000111000000000000000100000010000000100,
00000010000000000000000000000110000001001111011000000000000000101111111000000110000001000000010000000110000000000000000000000010000001001111101000001000000000000000000000000100000000001111111000000010000001000000010011111000000000000000000011111100000000101111111000000010000000000000011011111110000000101111110000000100000001100000001000000110111111000000000000000010000001001111101011111100000000000000000011111100000001000000000000000110000000101111110000000000111111100000011011111110000001000000010011111110,
00000000000001100000000011111110000010001111110000000000111111000000011000000100000001100000000011111100000000001111101000000000000000000000000000000100000000001111100000001000000000000000000000000100000010000000001011111000000010001111111000000000000000001111110000000010000001000000010000000010000001001111110000000000000001100000010011111110000001000000001011111110000000000000000000000100111111100000000000000100000000000000000000000100000000100000001011111110000010000000010000000000000001100000100000000100,
11111110000001001111111000000000000000101111110011111110111110000000001000000100000100000000000011111010111111001111111000000100000001100000100011111110000010100000010000001000000000001111110011111110000001100000100000000000000001100000010011111100000000000000001000000010000000000000000000000010000010000000000000000110000010000000010000000000111111000000001000000100000000001111111000000000111111100000100011111100000001000000000000000000000000001111010000000100000000000000000000000010000000100000011000000010,
00000000000001001111101000000010000001100000001011111100000010001111110000000110000001000000000011110100111111101111110000000100000001100000000000000010000000100000000000000010111111001111111000000100000010000000010011111010000000100000000000000110000000101111111000000100111111000000001000000010000010001111111000000100000000100000010000000000000000000000000011111110000000000000001011111110000000000000010011111000000001101111111000000100000000001111101000000010000000100000011011111100000000000000011011111110,
11111110000001000000010000000000000001101111111000000010000011000000010000000000000010000000000000000100111110001111110000000000000000000000010000000000000001000000000000001000111101101111111011111110000001000000010011111110000001100000010011111000111111000000100000000010111111000000001011111110000001000000000000000100000001000000001011111010000000000000010000000000000000000000000000000000000001000000000011111100000000000000010011111110000000101111101011111100000000100000011011111010000000000000000011111100,
11111100000000100000010000000000000011001111111011111110000001100000000000000010000011000000011011111000111100101111110000000010000000100000011000000000000000000000001000001010111110101111101000000000000011000000011000000010000001100000100011111000111111100000001000000010111101100000000011111000000010000000000000000000000001000000011011110110000000100000010000000000000000000000010011111000000000000000000011111000000001100000010000000000111111000000000011111010000000000000100011111110000001000000010000000000,
00000100000001000000000000000100000001001111101000000000000000000000001000000100000000000000000011110100111111101111011011111100000001100000000000000000000010000000000000000110111111001111111011111100000010000000001011111110000010000000001011110100000000000000001000000100111111000000010000000000000010000000000000000010000001000000010000000000000000000000001000000100000000000000000011111010000000000000010011101110000001000000000000000000000000000000000000000000000000000000011000000100000010000000111000000100,
00000010000001001111110000000000000000101111101000000000000000101111111000000010000000000000001000000010111111001111001000000100000001100000010011111100000000000000000000001000111111101111110000000010000001000000010000000000000001000000011011111010000000000000010000000110111111001111111011111110000000000000100011111110000001100000011000000010000001000000001011111110000001000000010011111110000001000000010011110000000001000000000000000110000000000000001000000100000000000000000000000110000000100000010000000100,
00000110000001001111110000000100000001101111100000000010000000000000001000000000000001100000010011111000111110101111010000000000000001100000010000000100000000000000010000000010111111001111100000000000000001000000000011111110000001000000000011111100000000100000010000001000000001000000011011111110000011001111111000000000000010000000011000000000000000000000001000000110111111000000000000000000000001000000001011100100000000100000000000000000000001001111111000001000000001000000011000000000000010000000010011111100,
00000100000001000000010000000100000001001111101000000010111111000000100000000010000010000000100000000010000000101111011011111100000010000000000000000010000001000000001000001000111111000000000000000010000000100000100011111000000001000000000011111100000000001111111000000010111111100000010000000000000000100000000000000010000000100000010000000010000000101111111000000010111111001111111000000100000000100000000000000000000001100000010011111110000001001111100000000000000001000000011000000010111111100000011011111000,
00000100111111000000011011111100000001000000001000000000000001100000010000000010000001000000100000001010111110100000000000000000000001001111111000000010111111100000001000000010111111100000001000000010111111101111110011111110000001000000011011111110000000000000000000000010111111100000010000000010000000000000000000000010000000000000010000000000000001100000001000000000000001000000001000000100000000001111111000000000000001100000010000000000000000000000011011111110000001000000010011111000000000000000010011111110,
00000100000000000000011000000000000001000000000011111100111110000000001000000000000001000000011011111100000000001111110011111100000001000000001000000110111111100000010000000110000001100000000000000100000000000000000011111100000001000000001011110110111111001111111000000000000001000000010000000100000000101111110000000000000000100000001011111100000000100000001011111100000001100000010000000010000000100000010011110100000000100000000000000000000000000000000000000100111111100000011011111110000000100000001000000100,
00000000000001001111111000000000000010001111111000000000000000000000010000000000111111100000100011111100111101101111101000000010111111000000001011111100000000100000011000000110000000000000010000000000000000000000011011111100000001100000010000001000000001000000001000000010000010001111111000000000000000100000010000000100000000100000000011111110111111100000010000000010000000000000010000001000000010000000100011110000111111100000010000000100111111001111111000000010111110100000010011111110000001101111111000000010,
00000100000000101111110000000000000001000000000000000010111101101111110000000100000000000000100000000100111101001111101000000010000001000000000000000000000001000000100000000010111111100000010000000100000000000000010011111100000001100000000000000100000001001111101011111110000001001111110000000000000000101111110000000010000000100000001000001000000001100000001000000100000001000000011011111100000001000000001011100110000001000000010000000100000001001111110000000010000000100000100000000110000001100000010000000100,
00001000111111101111110000000000000001100000001011111100000000000000010000000010000000000000100011110010111110101111100000000000000001001111111011111100111111000000011000000110000001000000000000000110000001000000001000000000000001000000000011111100000000001111100000000000000001100000000000000100000000001111110000000100000000001111101011111110000000000000000000000100000000000000100000000100000000000000000011110100111111100000010000000000000000000000010000000110111101100000010011111100000001100000010000000000,
00000100000000001111110011111110000001100000010000000010000001100000010000000110000010100000011011111010111111001111100000000100000001001111110011111100000000000000010000000110111111100000010011111100111111101111111000000000000001000000001000000000000000000000001011111110000001100000001000000100000010001111110000000000000010000000000000000100000000000000000000000010000001000000000000001100111111000000000011100100000001100000100000000000000000101111111000000110000001000000111000000000000000100000000000000110,
00000100000000101111100011111100000001100000000000000000111111000000001000000010111111000000100011111110000000001111110000000000000000100000000000000010000000100000010000000110000000000000100000000000000000101111110011111100000000001111110000001010000000000000010000000110111111000000000011111100000001000000001000000100000001000000010011111110111111100000000011111110000001101111101000000010000000000000011011111000000000000000000011111110000000001111110000000100000000100000101000001000111110001111110000000100,
00000010000001000000000000000010000001001111110000000110000001100000010000000010111111100000101011110100111101101111111011111100000000000000010011111100000001001111110000001000000000100000011011111110111111100000001011111110000000101111111011111100000010000000010000000110000010001111110011111100000010000000001000001000000001100000011000001100111111101111111000000000111111101111110000000000000001000000010011111100000001000000010000000100000001001111111000000110000000000000010000000100111111000000001000000100,
11111110111111100000000000000010000010101111111000000000000001100000101000000100111110000000011000000010000000100000001011111100000000000000000011111100000000100000011000000110000000000000100000000000000001100000010000000000000000100000010011111110000001000000011000000100000010100000000011111110000001000000000011111100000000001111110000000010000000001111111011111110000000001111110000001010111111100000001011111100000000000000100000000000000001000000001000000010000001000000011000000100000000000000000000000110,
00000100000000001111111000000010000010101111111000000000000000000000010000000000000001100000010000001000000000100000000000000010000010000000010000001000000000000000000000000100000001101111101000000010000010100000001000000100000001000000000011111000000000000000000000000000000001001111111011111100000000101111111011111010000001000000000000000010111111000000000000000010000001000000001000000000000000101111101011111000000001000000010000000000000000000000000000000100111111000000100000000110000000000000001000000010,
00000010000000001111111000000100000001000000011000000100111111000000001011111110000000100000011000000000111111000000001011111110000010000000000011111100111111000000011000000100111111001111101011111100000001000000000011111100000001000000000000000110000001000000010000000100000000000000010000000000000000100000010011111010000001000000000000000000000000100000000000000000000001000000000000000100000000100000001011111000000000100000011000000000000001000000000000000100111110000000010011111100111111101111110011111110,
00000100000000000000000011111110000010100000000000000000000001000000001000000100111101100000100000000010111110100000011011111110000001000000000011111010111111000000010000000100000000100000010011111110000001000000011000000100000000101111110011111010000010001111110000000000000100000000000000000110000001001111111011111110000001101111111000001000000000100000000011111100000000100000010000001100000000000000001011110010000000100000010011111100000000000000010000000100000000000000011000000100000000001111110000000100,
00000110111111000000001011111110000010100000000011111110000001000000000000000000000001100000011011111110111110000000011000000100000000101111111011111000111111000000010000001000000010000000010000000000000001000000001000000000000001001111111000000000000000101111111011111100000010101111101000000000000000100000000000000000000001000000000000000100000000000000000011111100000001000000010000000110111111000000000011111110000001000000100000000000111111100000000000000000111110100000110011111110000000001111110000000010,
11111110111111000000100011111110000010000000001000000000111111000000010000000000111111000000110000000000111110000000100000000000000000001111111011111000111110100000000000001000000000100000100000000000111111000000000000000100000000100000001000000110000000100000000011111100000011100000001000000000000001100000000000000000000010001111101011111110000000000000010000000000000000000000000000001000111111000000000000000000000000100000101000000010111111000000110011111110111100100000110000000100000000001111111000000100,
00000110111110000000010011111110000010001111110011111100000000100000001011111110111111000000101000000000111110101111111000000000000000100000100011110100111110100000010000000100111111100000011011111110000000000000000000000010000000000000000011111000000000001111111000000000000001101111110011111110000001000000000000000000000001000000000000000000000000100000000000000000000001000000000011111110111110101111110000001000000001000000100011111110111110100000010011111100000000100000010000000100000000101111101000000000,
00000000000000001111111000000000000001000000010000000000000000000000001011111110111111000000010011111110111110000000010011111110000000000000001011111100111111000000010000000110111111100000001011111100000001000000001000000110000001101111111000000000000000000000001000000100000001100000010000000000000001100000001000000000000001100000010000000010000000100000001000000000000000100000011000000100111111100000001000000000000001000000000000000000000001000000100000000110000000100000011000000100000000001111101000000010,
00000100111111000000000011111110000010100000010011111110111100000000101000000100000000000000101011111100000000000000010011111100000011000000001011111110111110100000000000001000000000000000011011111010000011100000001000000000000001000000000000000100000001001111111000000000000011000000001000000000000001001111111000000000000010000000001000000000111111001111111000000010000000100000000000000110000001101111111000000010000000100000011000000000111111000000010000000010000000000000101000001000000001001111111000000100,
00000000111111101111111011111100000010000000000011111110111101100000010000000000111111100000101000000000000001000000001000000010000001000000010000000010111111000000010000001000000000000000010011111110000001000000000000000110000000100000001000000010000000000000000011111100000010100000000000000010000000101111111011111000000001101111110011111100000000100000010000000100000000101111111000000110000000101111110000000110000000100000001000000000111111100000011011111110000010000000101000000100000000101111111011111110,
11111110111111001111101011111100000010000000001000000000111110001111111000000000111111000000101000000100111111000000000000000010000000000000010000000110111110100000011000000100000000000000010011111110000000000000001000001000000001000000000000000100000000001111110011111110000010100000001000000100000000001111111000000010000000000000000011111010111111100000100000000100000001001111111000001000000000000000010000000000000001000000001000000010111111000000010000000000000000000000010000000000000001101111101000000000,
00000100111110100000001000000000000010000000000000000100111111000000001000000010000000000000100011111100000000000000011000000100000001000000010000001000111111100000010000000110000000101111110011111110000000000000010000000000000001001111110000000110111111100000010000000100000010001111110011111110000000000000010000000100000001000000010000000000000001100000001000000000000000101111110000000100000000100000001011111110000001000000010000000100111111100000001000000010000000000000010000000110000000001111110000000100,
11111100000000001111111011111100000001000000010000000010000000000000010000000000111111000000101000000000111111000000010000000000000001000000011000001000000000100000001000000110000001000000000011111110000001000000010000000110000001000000000011111000000000000000010000000000000010000000000000000000000001000000000000000100000001100000011000000000111111000000000000000110000001001111110000000100000000000000000000000100000010000000010011111100111111100000010011111100000001000000101000000010111111100000010011111100;
