memory_initialization_radix=2;
memory_initialization_vector=
000011101111111000001000,
111110100000000000000101,
111111101111100100001011,
000000100000001100001100,
111101110000100011111001,
000000000000011111111100,
000011100000010111111101,
000100000000101000000011,
111101011111100011111011,
000010110000010000001110,
111110100000010111110111,
111111000000101100000101,
000001011111110100000101,
000010110000110100000100,
111111010000011011111110,
111100100000011100000000,
000011011111100111111111,
000010111111111100001010,
000011000000001000000001,
000010000000000011110111,
000011110000000100000111,
000100101111111100000011,
111100110000101000000001,
111110001111101000001000,
111111001111110100001100,
111101000000100000001010,
000001001111010011110111,
000000000000101100001000,
000010110000000011110101,
000011000000100000000010,
111010000000000000000111,
111110001111011000000100;
