memory_initialization_radix=2;
memory_initialization_vector=
11111111000010110000000000000101000000000000000111111110111111100000010100000011000000110000101000001010111101101111100000000100000001011111111000000001000000011111110000000010111111100000001100000011111110101111011111111101000000001111100111111101111101110000000100000101000000110000000100000011111110100000010011111101000000000000001100000011000001101111111111111111111111101111111000000101000000011111101100000101111111110000001000000010111111110000100000000000111110101111110000000100000000100000001011111011,
00000001000011100000010011111100000001001111101000000001111101100000011000000000000001010000010000001000000000010000010011110111000001011111110011111100000001000000010000000100000000000000001100000110111110110000001000000000000000000000011111111100111110010000001100000001111111011111110100001000000000111111111100000000111110000000000100000101111111000000011111111111000001111111110100001000111011110000000100000011000000100000011000000000000000010000001000000101000001000000011100001100000000110000001111111101,
00000001000011000000000100000101000000001111101100001000111110100000001111111100000000100000001100000110111101111111110011111100000000100000010111111010111111111111110100001001000000110000001000000000000000111111101100000000111111110000000000000100000000000000001000000011111111110000000011111101000001111111111111111111111111101111100000000101000001110000000000000011000000111111101100000011000000101111110111111111111101100000001000000010000000110000001000000100111111111111110000000001111111110000001000000101,
11111111000010010000010111111111111111111111100000000001111111000000000100000000000000100000001100000010111111100000000011111001000010000000001100000001000000111111111000000010111111010000011000000110000001001111101111111111000000100000100011111100111110100000001000000010000000010000011000001100111111111111110011111101000000101111111100001011000000010000011111111110000001011111110100001001111110000000001111111011000001000000010100000010000000000000000100000110000001110000011000001000000000010000010100000010,
11111111000001100000001100000100000010010000000100000101111111110000000011111011111111101111111000001011111111111111111000000100000000010000010011111110000001001111111000000110000000000000100100000011000000111111110011111110000000100000000111111101111110101111111100000101000000001111110100000100111110110000000111111110000000101111110000000011000000000000011100000100000000101111110100000110000000101111101100000000000000000000000000000111000010000000100000000111111111000000001011111111000010000000000011111011,
00000110000001110000010100000000000000101111111000000010111111001111111000000011000000110000001100000100000000110000001000000100000001101111110111111111111111111111100000000110000000000000011100000011000000101111101000000000111111110000001011110101111101110000011000000001111111101111111100001001111111110000000000000010111111100000000000000101111111110000010000000000000000101111110000001000111111110000011111111111111111100000010000000001000000000000100000000100111111110000000100001001000000100000001000000011,
00000001111111100000000000000110111111001111111100000010000001100000010100000101000000110000100011110111111111000000010000000001000010000000011100000100111111111111111100000000000001100000011000000101000000000000010000000000000000000000010000000010111100100000100100000010111101111111100100000010000000100000000100000110111110101111101000000010000000010000010011111110111111000000001100001000000000001111111000000000111111011111111000000010111111110000010011110111111111110000000100000001111110100000000000000000,
00000011111111100000001111111100111111001111111100000010111111010000000000000111000000100000010011111100111111000000001100000001000010000000100100000101000000010000010000001001000000010000001011111111000001000000000000000001000001001111100100000001000000000000011100000101111111111111101111111011000000111111110100000000000000001111101111111111111111101111111100000001111110101111101100000010111101110000001100001000000000010000010011111100111111000000001011111111000000110000001011111001111100110000010000000100,
00000001111111010000000011111100111111010000100000000000000000000000000011111110000000010000000111111000111111001111111100000100000000100000001100000100111111000000001111111001000000011111110111111111000000010000001100001000000001100000000111110110111111100000000011111100111111010000000100000001111110011111110100000100000001100000010011111110000001101111011100000000111111110000000011110110111111110000001000000110000001000000010011111101111101110000010011111000000000100000001011111101111110100000001011111110,
11111000111110010000000111111111111111010000011011111011000001010000010000000010111111011111110011111011111111011111111100001001000000101111111100000010111111100000001111111100111101001111111111111100111110010000011000000010000000000000000000000000000001011111011111111001000001100000000011110111000000100000000000000001111111101111101111110010000001101111001011111101111111101111111100000010111110111111110100000000000001100000001100000000111110011111110100000000000000010000001111111011111111100000010111111111,
11111010111100010000010100000001000000000000010111111010111111101111111111111101111111100000011111110101111111000000011000000000111111110000001011111010000000010000011111110110111110101111111000000010111110001111100011111110111111010000011100000000000001110000011000000101000000100000001111111110111111011111110111111010000000110000001011110111111110001101110011111110111111000000000000000011111111110000000100000010000000000000001000000010111110110000010011111001111110101111110011111101000001110000010100000100,
00000001111110010000011011111111111101010000000011111011000001100000001000000000111111010000010011111010111111100000010011111100000001111111101000000100111111100000001011111100111110011111111100000011111110101111100011111101111111000000011111111101111111010000110011111010111110010000000100000101000000001111101000000011111111010000000100001000111110001110001000000011000000111111111111111000111111100000001011111001111111110000000000000001111110110000001100000000000010001111110100000000111110000000010100000100,
00000011000000000000000000000000111101101111101111111110111111100000000011111110000010001111111111111111000000001111111000001010111110101111000111111111000001011111111100000011111100001111111000000100000000010000001111111001111111111111101011111110000000100000100100000101111101011111111100001110000000111111111000000110111111011111110111111110111111111111111111111100111111100000010011111000000001000000001000000011111111100000000100000001111110101111110011111100000010001111111011110100111111110000101100000010,
00000011000000100000011111111110111110100000001000000000111101000000001000000010000000001111100100000000111110111111100000000010111110101111011011111101000000100000010111111111111101110000000100000011000000010000111100000011000000011111111000000000000010000000010100000100111111100000011000000111000011001111110000000100111101110000011100001011111101111110001000001000000001000000010111110000000001111111110100000010111111001111110100000101111111001111110000000000111111000000011000001101111111110000000000000101,
11111100111110110000011011110101111110100000100111111111000001101111110100000011111111111110111000001010111111101111101000000000111110111110111000000111000001000000000111111011000000100000000011111100000000000000111100000011000001001111111111111111000001100000001000000011111101110000010111111111111110000000000100000010111110100000001000010000111101111111100000000011000000100000110111100111000001011111111000000001000000111111111100000010111111111111111111111000000000001111110000000011000000100000001100000000,
11111001111110110000000011111011000010010001000100000001000000110000010000000010000010010000010011111111000001001111110111101001111001100000011111111001111111010000010011111100111101111111111011111110111111010000001000001000000000001111101111111001000000011111101011111011111111010000000000001010111101001111110000001000111100000000001100001001111110011111000100000010000001010000111111100100000010101111111000000100000001000000010011111001000000000000001011111011000000111111011011110111000010010000100111111101,
00000101000000100000001000000100000010101111000100000011000010000000011100001011000011011111000011111100000000100000000111111101111101010000010111011011000001001111110100001111000010001111111111111100000000111111100000000011111111110000010011111111111101111111100000000000000000111111111100000111000001101111111000000110111010100000000100000010111111000000010111011100000000001111111111100111000000101111111011111101000010100000010111111001000000000000000011111110000010110000011011110100000011001111101100000011,
00010101000010000000010100000010000010011111100100000100111100000000100111111110111101011110110111111001111110111111111011010111000000110000101011101111111110011111101100000101000010110000010011111101111101010000100111111000000010101111101100000110111110111110110100000101000101010000011100001110111111111111110000001111000010110000001100000011000000001110110011111110000010100000100011111011000000011111111011111000000100110000111000000000111110101111100000001011000001110000011111110100000011101111101100000011,
00000101111111101111101111110100111111001110101000000110000000000000011000000011110011011110010011111000111111101111110011100001000010110000101000010101111111100000010111111110000100001111110000000010000001011111011111111100111111001111100100000001111110001111001111110111000000110000001111110011111011100000000100000011000011011111100011101101111111011110001000001011111101011111011111111000111101100000011100001111000000000000101100001110000000100000001111111000111100100000101011100000000011010000011000000010,
11111001000001111111101000000110000001101110100100000100111111100000011100001101111111100000010011111101000101001111111011110111000001010000010100010000000000011111011000000111000000000000001000010001000010101111100011110110000001001111111011111001111111111110111011111010111101110000010011110100000000001111111100001000111101111111101011111001000000101110110100000001111110011111000011101111000000000001000000001100111101000000001100000101111111010000010000000011111111010000001011110000000010010000100000001100,
00000000000001101111111100000110000000111111011111111100000001100000001000000100000001110000001100000100000000000000001000000100111110100000100000001100000001000000000011111101000001010000011000001000000000001111101011111100000000100001100000001011000000011111000000000010111110100000010100000001000011100000011111111111111100001111110000000001000001101111000100001000000000111111010011110001000000001111111011111010111111011111111000000010000000010000001100000100111000011111010111111111000010100000011000001010,
11110111000001110000010000000101111111111111111100000000000001011111111100000100111111111111101100000110111110001111111011111111000001110000001000001000111110111111101011111111000000110000001100001111000001100000101111110110111111100000100100000100111111110000101100000101000001100000010000000000000000000000000000000111111111101111100111110100000000111110010100000011000000101111111011101011000010110000110111110010000010001111111100000111000000110000000000001111111100101111011011110100000001000000100011111100,
00000011000001111111111100001110000000000000100011111110000010111111110000000101000010110000110100000111000010011111101100001001000010010000001000000010000000110000000111111000000011010000010100001001000001010000101111111001000001010000011000001110000000010000111011111111111101011111110100001000111111111111111100001011000000101111111111101111000011011111000100001000111111110000001111110111111111100001000011110100000001000000101100000111111111100000011000001001111100001111100111111100000010110000001100001000,
00001001000100100000000100000001000010010000000100000100000001101111101100000000000001000000101111111111111110111110001100000000111110010000111100000011111111110000010111110100000001000001000000001101000001010000000011111101000001110000101100000100000001100000001100001001111100001111011100001001111110110000001100000111000010101111110000000010111111111111111100000011000010000000000111101110000000110000100011111111000000000000010000001011000010100000000000001001000000011111010111111100000100101111110100000110,
00000110000100000000010000000100000000000000010000000101000000001111000111111110000010010000011100001010111111101110110100001101000001110000111000000001111111110000100011110110111111110001000100010011111111101111011000000011000011000000100000001010000101000000000000000011111111111111110100001010111111000000100111111110000010001111111111111111111101001111100000000011000010000000010011100110111111101111111111111100111111000000001100000111000011111111111100001010111110111111000011111111000011101111110100001001,
00001111000100100000010000000010111110101111111000001000000010001111111111111110000001010000010011111101000000101111101100001110111110100000101111111101000010011111110100000101000000010000110000001001000000010000000000001000000000111111100111111101000011101111101100000011111110011111101000010101000010000000110111111001000000010000010011111001000011001110101111111011000010000000010111101010000000010000010100010000000000110000001100001101000010011111100100001000111111111111000011110010000011001111110011110110,
11111110000010101111101100000001111111011111100000001001000011111111110100000001000000110000000100000011000010001111101000010000111110100000100111111110000000011111100111110101111111100000000100000111000000110000010000001010000001110000001100000010000010001111100100001101000100001111111000010010000001110000011111101000111110110000011111111010000010011111101100000101000000010000000100000110111110000000001000000100000001000000010100000101000010111111101100000010111101101111000111110011000010010000000111111100,
00000000000000000000001000010000000000011111111000000111000011011111110111111000000001001111100000001100000010000000011000000011000011001111110011111000000001010000000000000001000000111111111100000111000000000000101000000001000001100000100100000000000010100000001100001011111111001111110000000010000010010000001111101101000000110000101011111111111101000000111111111010111111110000001100000000111111010000001100001100000000100000010000000001111111111111010000000100111101111110111011111100000000100000001011101111,
11111110000000011111110000001111000000010000010000000010000100000000001011110111000000000000001011111111111110110000000100000100000101000000010111111001000001001111111000000100000000111111001000001001111111011111101100000101000000100000010011111111000011100000011100001011111101100000000011111000000100100000010111101011111110010000001000001001000010110000100100001010111111111111111111111111111100000000001000000011111111010000000000000011000001000000011000000000111011001110111111101111111111010000000100000000,
00000101111110010000001100000000000000100000000100000011000001011111011111110100111111011111110011111101111011011111110000000010000000110000000111111011111111111111100111111110111110001111001000000110000000000000000000000010000001011111101111111110111110001111110000000010111101110000011100000101000011100000011011110111111101011111011000001010111101100000010100000001111101101111011000001001111101110000001100010000000000010000001000001000111110111111111000000110111110111111001011110100000000110000001011111001,
11111110000000110000010100000111111110110000100011110100000001001111101111110111111100001111001111110010111111001111101111111011111100111111110111111110111111101111110111101110111110011111000000000000000000101111111100000000111111011110110111111101111100011110001100001100000000110000000100001000111110011111111111110111111101101111111000000001000000100000001011111111000000100000001000000110000000010000010100010001111111011111111100000011000001010000010000001000111110001111000000000011111111111111111011110100,
11111011111101001111111100010001000010011111111111111111111110110000001100000011000000011111101100000010000001111111110011111100111100011111110000000101111110100000000000000111111110001111011000000111111110111111110000000111000010001110101000000011111111101110110100001000000000100000001011110011000001001111011011111101111010000000001000001001000001000000010011110110000000001111110100000100111111000000001000010010111110011111111000001010000000100000001100000000111110101110101000001010000001001111110000000100,
11111100111010111111010000001111111101000000000011111100111110101111010100000000000000000000111011111100000001011111101111101111111110100000000100000001000001111111011100000100111101011111000000000110111111011111100111111100111111001111010111111000111111001110011111111110111111100000001111111101111111100000001011111100111101011111110100000000000000000000010000000010000000100000011100000111111011010000001100010001000001000000000100000100000000100000011011111100111111011111100000001000111111001111110000001001,
00000000111101100000000000001100111011111111100000000101111111001111101000000111000000000000110000000110000001100000011011110101000000101111111111111101000001011111100111111100111101111110111000000011111111011111101100000100000001111110111111111101000010001110011000000001000000011111110111110101111101110000010011111100000100100000001000000111111110110000011111111001111111111111101100000100111011010000010100000001111111100000000011111111000000010000000000000000111111111111110000000000111111001111110000000110,
00000110111101010000001000000101111110010000010100000001000010001111111000000001111110100000100100000111111101100000010000000100000010011111101111111111000001011111100100001001111110111111010000000011111111000000001100000000000000001111010111111101000000001111011000000011111111000000010011111101111111100000100000010001000000000000001000000110111111010000001100000101000000101111110111111100000000011111110111111110111111110000001000001001000000110000010111111010000000011111010000000100000000000000001011111110,
00000011111111100000000100000000111110110000000100000011111101001111111100000000000010001111101111111000000000010000101011111011000000110000000100000001111111001111001000000010000000001111001000000100111111001110101000000010000001001111001111111110111111011111011011111110111110000000001011110101000001100000001100000000000011001111111111111101000001110000011000000000111111011111100100001001111101011111010111111011000000010000000100001000000000101111100100000011000001010000001000000011000001111111111100000100,
00000110111110110000100000000011111101011111111100000001111111100000100100000101000001100000000011101111111111110000101000000000000001111111111100000011000000111111100100001101111111111111011000000111111110001111101011111111000000011110101000000001111101100000011011111000111110001111111100001010000001010000011100001000000001010000000100000010000001000000001100000010000000101111110100001011111101101111110111111011000001000000000100000000000001011111000000000110111101011111111000000110000000110000001011111100,
11111110000001010000010011110111000001111111111000000110000001100000000000000010111111100000100011110000111111010000001011111010111111111111101011111101000000010000011100001100000001111111010100000100111110010000011100000011000000101110011100000100111111010000010011110001111110100000000100000101000010000000000000000001111101110000001011111111111111000000010011111101000000011111101100000110111100111111010111111110000000010000001100000101000000101111001011111111111111001111111000001010000010000000010011111000,
11111100000010111111110111111100111101100000010000000011000001010000001000000010111111110000101111110011111111100000001111111000000001110000010011111001000000000000101000000000111111010000011000000101111110101111101000000011000001011111001011111111111110000000010100000000000011000000000100010000000000000000010011111100000000000000011011111000111110100000010000001001000000110000000111111001111110011111110111111011000000011111111100000001000001111110100000000000111110001111100000000110000001110000100011110101,
00001101000000101111101000000001111111110000011000000111111101110000001000000011000000100000000011111001000000000000001000000101000011101111110100000001000001010000001111111110000000000000010000000010000000111111100111111001000000101111101000000000000000011111101011110111000001100000011100001010000001000000001000000100000001101111111011111101000000000000010100000100000000110000000100000000111100010000000011110011000001100000000000000000000001101111011011111101000000011111110000000011111101000000000111110110,
11111000000010111111101111111101111111101111111000000010000000000000010000000011000000011111101100000110000001001111100000000001000010000000000100000111000000111111101111111111111110100000100000001000000001000000000011111100111111110000000011111011000001010000010100000110000000011111111111111011000001011111111111111111000001110000010000000000000000010000101100000001000010001111111100000111111010000000100111111000000000010000001100000010111111111111001111111101111111011111111111111101000000010000100111111001,
00000101000000110000011000000100000001110000000111111111000010001111110000000100000000110000001100000111000000100000100011111011111110101111101011111110000000001111110011111111111110110000000100000100000000100000010011111010000000100000000100000100111101011111010011111111000010101111111011111100000001111111110111111001000001010000001100000101000001100000001111111000000001100000000111110000111101010000000011111101111111000000000000000011000000101111010111111011111111001111101100000110111111100000001000000011,
00001100111111100000010011111101000000111111101100000010111111111111101111111101000000011111111100000110000000110000010000000110000001001111001100000100000001000000000000001001000000010000101100000110000001001111010011111011000000000000100011111101111110101111100100000100000010010000011011110100000001100000011111110110111110100000000000000010000000010000011100000100000000100000011011101000000000001111110100000101000000110000001000000111000000010000011100000110000000010000000111111010000010000000001100000010,
00010000000001110000001100001000000001000000011000001000000001010000000100000111000000011111111000000010000001001111101100000000000001011111110011111110111111011111100100001000111111000000001000000100111110110000001000000010111111110000010100000001111110110000011000001001000000011111111111101011111111011111111011110100000001110000000111111000000010010000011111111110000000010000000111110010111110010000001000000011000000011111110111111110000000110000010000000011000000100000010011111110111110010000010000000101,
00000110000000110000011011111101111111101111100011111110000010010000001100000010111111110000010000000110000001001111111011111001111101111111011100000011000001010000010011110111111111010000110100001001111111000000001100000100111111110000010000000111111111101111111100000111000000000000001111110101000011011111101011110001000010010000010000000000000001100000100100000110111111101111111000000001111101001111111111111111000000010000010000000100000001010000001000001001111110110000001000000110111110010000001011111110,
00000100000001110000001111110010000000011111111011111110111111011111111111111111111111010000000100000001000000111111101100000000111101111111110100000001000001000000011111110110111111010000010100000101000000110000010100000111000000010000100011111101111101010000001000000101000010111111101111111001111111100000011100000000111110000000100011111101000001010000000011111110000010101111101100000010111101110000000011111111000000011111110000000010111111010000010011111011000000000000001000000110111100110000010000000001,
00001011000010011111111111111011000001100000000011111110111110000000000011111111111101011111111000000001111111000000010100000101111101101111101000001000111111110000011111111011111111011111101000000101000010000000001100000111000001000000011000000111111111100000010011111011000001000000011100001001000010000000010111111110111111000000001011111010000001110000010111110111000001111111110100000101111110101111111111110111000000110000010000000001111110110000000100000001000010101111111000000010000000111111111011110110,
00001011000001001111111000000001000001111111111000000111111111110000000000000001000010010000010100001000111111111111110100000101111011001111101100000000000001000000100011111011000000100000011000000010111111110000000100000000000001111111100100000110000010010000101000000111111111010000010100000000000000001111111100000011000001001111111000000011000011010000010011110011111111010000000100000110111111100000011111111011111111110000000000000000111111010000011000000110000001011111011000000110111110010000001000000100,
00001010000010100000000100000101000000000000010100001001000000010000001100000111111111100000011100000101111110000000001011111011111101001111010100000101111111010000010000000110000001010000100000000001111110001111110100000010000000010000010000000011111111110000100100000010111111110000000111100001111111001111010011110100000011100000010100000001111111101111010011111101111101001111111100000000111111110000010000000000000000010000010000000011000000110000100100000011000001001111110000001001111111000000001100000010,
00000100000000100000100111111101000001001111110011111110111110010000100111111110111111100000010000001000111111111111100000000001111100101111110111111111000000100000010000001011000010011111111000000110000001010000001100000111000000000000010111111101111011010000000111111101000000011111110111101011111110010000000100000011000010010000001000000111000001001110011011111100111101000000010100000001000000000000000000000000000000110000000100000001000001100000011011111000000000010000010011111111111111001111111000000000,
00000000000100000000000111111101000001100000001000000011111110010000001111111001111111010000000000000111000000010000001100000001111100001111010011111010111110100000000000001000000001101111111100000010000000101111101100000100000001000000001011111100000001010000101011111000111110110000000100000001000000010000000111111010000000010000001111111001111110101110110100000110111101000000001011111111000000001111111100000101000001010000000011111110000001000000011011111101000001110000000000000100111111010000010111110011,
00001000000011000000100100001001000001100000001000000111111101101111111111111001111111001111010000000100111111010000000100000111111100111111001111111110000001110000100000000001000001010000011000001000000000011111010011111000000000000000010100000100000001100000001011111011111111011111111100001110111111110000100100000110000001111111110000000010000010001111010011111111111110000000000011111100111110110000100000000101111110111111111011111111000001011111111011111001000000101111011111110111111101011111111011111010,
11111110000010001111101100001011111111010000010111111100111110101111111100000101111111011111101100000001000010111111100000000100111101110000000011111000000001101111110100001011111101110000010100000101111110001111101111111110000001010000010100000111111111111111110011111011111111001111101111111000111110010000100111111011000011000000010000000000000000011111110111111111000000101111111000000011000001111111110111111111111111100000010000000101111111000000000111111001111111100000001011111001111100101111101100000001,
00000010000000101111100100001000000000000000000011110110000000110000010100000101000001111111010100001001000011101111110111111011000000000000001011110101000001010000011000000110111111000000010100000110000001010000000000000100000000100000101100000010111101110000000111110101000000100000011011110000111011110000011111111000000011010000000100000100000000101111000000000010000001010000011100000111000000011111111100000111000000000000001111111111000001000000100111110101111111000000000011101010111110111111100011111111,
11111111000000111111011100000000111110001111111011111100000001111111111000000101000001110000001100000100000000110000000011111101000000101111110011111011111111000000100100000101000000110000010000000101000010001111110000000011111111111111101100001010111110111111100011110000000010110000010111110000111100001111100000000011000000100000011011111111111111011111000100000011000000010000001100001001000000000000010111111001000001100000001111111101000000110000000111110101111110110000010111110010111110100000001100000001,
00000110111110101111111100000101000000011111111100000110000000111111111100000100000001100000011000000000000011111111100000000011000001001111111111110011000001100000001111111111111111110000100000000101000000001111001011111000111110111111111000000011111111011111110111110101111110111111111111110101111111100000100000000010111111010000100000000010111110011111111100000010000000100000010100001010000010101111110111111101000000111111101111111111000000000000001100000000111110000000101111111001111101011111111000000001,
00000100000000011111101111111011000001100000000100000000000000110000001000000011000001010000010000001011000010101111111100000001000001011111111111111100000010001110110100000011000010011111110100000001000000011111111111111100000000110000011000000111000011100000011111110000111101110000001011110010000001010000001011111110111110100000010111111101000000101111010100000111111111100000001000001010000001000000010100000000000000011111110000000001111111010000100000000100111111000000010011110101000000110000001011111110,
00000110000010001111011111111101000001101111111100000011000001100000000000000000000000100000010000000100000010100000010000000010111011111111110111111101000010011111100011111010000001100000000111111110000000001111010100000000000000111111111100001010000011001111111011111111111111000000001011111001000000110000000000000001111101000000001000000100000011111111100000000011111100110000001000001001000001010000000111111000000001110000100100000001111111001111111000000110111101110000110011111010000001001111110111111100,
00000101000001110000000111101111000010001111101100000011111110010000000111111000000000101111111100000001000001000000001000000110111101101111111111111010000001010000001011111010000000011111110111111100000000001111111100000101111111010000011100000110111101110000000011111011111110111111111011101111111100010000001111111111111101010000000000000011000000111111111100001010110111110000010000000100111110010000001000000000000010110000100011110111000001000000110000000100000000000000101000000010111111001111010111111100,
11111111000010101111100111101111000100101111110100001000111111010000001100000000111110101111101000001000000001000000011000001001111100001111111111111101111111001111110011110100000001001111111111111010000010000000000000000010000000110000001000001001111110001111101000000000111110101111010111110011111011001111111000000010111101110000001000001010111111101111111100001000111110100001000000000100111111100000010000000101000000100000010011111100000000110000001111111011111111000000101111111001111100011111100111111111,
11111101000010001111101111110110000001011111011100000101111101100000010100000011111111011110011100000011111101011111101100001000111110100000100111110110111110111111110111110101111110111111101111111110000010001111110111111011111111001110110100001101111111101111000011110111000000010000010011110111111010100000001000000000111111000000000111110101111111111111100011111000000000111111011011111111000000111111101111111111000000000000000100000001111111000000000000000101000001110000100011110111111110000000001100001010,
00001101111110101111111100000010000010001111100000000010111111010000011000000111111101101110100100000001111111001111011000000011111111000000100000000111000001100000001011111110000001011111111011111100111101011111011000000011000000111111110000010101000001001111110111111100000000110000011111100111111101001111111111111000111101010000001111110111000010111111101011111111000001101111010100000011000000101111100000000010000001000000001011111001111111000000000000000010111111100000011111110110111100110000001100001101,
11111111111111011111111011111111000001111111111000001101111111100000000011111010111110011111001000001000000000010000001100000000000001010000111000001110000001000000001011111011000001011111110111111101111111011111001111110000000000111111110100001001000000001111101011111010000000011111110111101010111011001111100111111100111100001111101011110110000001101111111011110111000011100000100000001001111111011111101011111011000001010000010000000101111111100000011100000010000000010000011111111011111100000000000000001000,
00001011000001010000000100000000000011010000000000000101111111001111110100000011000001001111011000001000111110100000001111111010000000000000010000001000111101111111111011111101000000100000001000000010000001100000011011111110111111101111010111111010000000100000000011111011000001011111111011110010111101011111111011111001111110100000100011111110111111101111000111111010000010100000110000000010111111001111100100000001000010100000101011111001111111110000011011111110000010011111111111111010111111110000001000001000,
00000001000000111111101111111111000001010000000100000110111111001111110000000011000000011111010011111101000011011111101011111101000001000000100100000111000000011111100100000010111110001111110000000001000010100000100000000011111111111111101111111100111100011111101100000100000011000000000011110101111111100000000100001000000001001111110100000101111110111111100111111100000000110000111100000100000001000000001011111110000001110000011000000011111110101111110111111101000000011111110011111100111110011111111100001011,
11111111111011101111011100001000000001100000000011111110111111010000000011111101111111101111101100000000000001111111100000000001111111010000100100000001111111010000000000000101111111100000001100000001111111010000101000000000000000001111101000001100111101001111011000000011000001101111101011110001111110010000100100000001000000010000100111111010111110100000000111111111111111010000001100000000000001100000010011111001000000111111111100000101000000111111111000001000111111110000000011110110000000011111101100000111,
00001000000001000000011100000011000000000000010011111110000000001111101111111111000001011111110000001000111111101111110000000111000000110000110100000001000001111111110111111110111110110000001000000100111110110000101000000000000000010000011011111101111110000000000100000110000010001111110011110010111111000000001100000011111111111111110111110110111110000000001100000000111111000000000000000000000011011111111111110100000000110000000100000011000000001110111000001011000010001111100111110100111110111111010011111000,
00000111000010100000000000000101000011010000001000000000000000000000000111111110111111111111011000000001000000001111101011111101000000010000110000000011000001100000001000000011111111100000000100000001000000000000110000000000000000010000011000000010111111111111100100000111111111110000001000000100000000011111111100000101000000101111110111111100111111001111011011110001000000100000001100000011111111000000001011110110000000000000000100000000111111111111111011111100000000011111111111110111111001101111111111111001,
00001101000001000000000111111100000011010000000000000010111111101111101011110110111101101111101111111111111101111111101000001001111101100000101111111110111111010000001111111100111110010000100100000100000001000000001000000000000000110000000000000001111111110000100100000011111111011111110100001011000000000000000000000000000000100000010111111110111101110000000111110010000000001111111000000010000001010000000111111100111110000000000011111011000001110000101100000011111111101111100011111000111101011111100111110101,
00010110000000010000010011111010000001101111110011111100111101101111110111111011000000101111010100000100111100110000010100001010000000000000111000001000111111100000010000000011000001000000010100000100111111010000001100001000000001000000011100000001111110101111001111111111111110111111101111111011000000011111111000001011000000010000100011111011111101001111101111111100111110010001000000000010000001001111100100000101000001111111111100000011000011100000000011111111000000101111110000000010111100001111001011111100,
00001101111110000000011011110101000000101111111111111011111110110000011011111101000001010000001100001000111110000000011100000001000001010000101000000101000000110000000100000011111110011111101000000011000001000000101000001111111111001111110111111110111011011111001011111110111110111111110011111010000010001111111000000100000010010000010111111100000000111111101000000000000001010000010000000110000010100000010011111010000000011111110000000011000001011111111000000000000000101111100111111111000001101111110100000100,
00000111000001100000100100001011111111100000001111111111000001010000001111111110000000111111111000000011111110010000001000000111111111100000110100000001000001001111011000001001111110111111101000000101000001000000001100010000111111111111101000000100111101101111110100000011111111111111110100001111000100010000001011111111000000100000111111111010000000000000000100000100000000000000011000001011000010000000100011111001000000010000000000001001111111010000010000001100111101110000011111111110000010011111110000001010,
00001011000010100000001100000111000011111111101100000000111111001111101100000010111110010000100100000001111111011111111000000001000001010000110100000111111111111111001000000001111111011111011000000011000000110000001000001101000000111111100000000010000001101111101000000101111101110000000100000100000010010000100011111110000000010000000111111010000010110000001011111010000000101111110100001111000001110000011111111000000000000000010011111110111110010000000100000110111101100000000100000010111111101111111100001000,
00010001000001110000011011111111111111010000000100000010111101111111100111111111111100101111111111111010000000010000000100000000111111000000011000010010000000011111010000001001111111101111100000000011111111100000011100000011111110111111010011111111000001110000000100000100000000110000000000001100000001010000000000000101111111000000100011111100111111100000010111111100111111100000010011111001111111111111111111110001000000111111101100000101000010000000100011111110000001101111100000000110000001010000000111111001,
11111111000000110000001100000010111110100000000011111010111101111111111011111001111101110000101100000000000000100000000100000001111101110000100000001001000000010000000011111110000010011111110100000010111111100000111000000111000000100000001100000101000010000000010100000111000010100000001000000101000011010000100011111111000000110000010100000011111111100000010111111110111111000000001011111101000000100000010011110101111101001111110100000001000001110000011011111101000001001111100111110111111111000000011011111100,
00000100111110110000000000000000111111110000010100000011000000111111100011111011000010000000100100000100000001110000000100001010111101110000100000000110000010010000001100000000000000100000010011111011111101000000111000001110111110110000001000000101000011001111111000000000111110010000010100001011000010000000001000000001000001100000010011111001000000100000011000000010111101000000011011110110000011100000010011110110111111011111110111111011111111101111011011111011000000001111000011111010000000011111110100000101,
11111101111110101111011100000100000001100000000011111110111111011111111100000000000000111111100111111111000001010000000000001010111111010000111100000011000010011111101100000010111111000000001000000100000001010000101100001100111111111111011000000010111110000000011000000011000000010000000000001100000011000000010100000001111111000000001111111011111111110000011011111111111111001111111011111100000000100000000011111001000001110000001000000001000001001111001100000000000000011111011100000001000000110000010111111100,
00000101111110101111101100000101000000100000010011111110000000000000000111111010000000001111100011111101111101111111111100000110111111110000010100000110111111000000010000000101111111011111100111111011000010100000010000001011000000111111101000000110111010110000011111111000111111110000000011111110000010001111111000000100000010110000011011111111111111100000110000000011000000100000010011111010000000101111110011111111111111010000010100000101000001010000000011111101111110011110111111111011000001000000000000000011,
00001011111111111111001000001000000000100000100011111100111111100000010011111001000001101111011111111100111111000000001100001100000000110000001100000111111111111111011111111101000000110000001100000000000010010001010100000101000000010000100000010001111101010000000111111001111111101111111100000100111110100000001011111101111111110000000011110011000000011111110000000100000001000000000111111010000000111111110100000101000100000000001011111001000000011111010100000010111111001111110100000001000010001111101100001001,
00001000111111111111101100000111000001110000010111111100111101100000000111111001111110001111011111110111000001000000100000000100000001000000000100000000111110101111011100000010000000011111111100000100000010100000110100000001000000000000000000000011000001011111011111111110000001010000010000001111111111011111111100000110000001000000000011110100000000101111111000000010000010001111111011111100000001100000010000000101000000100000100000000100111111101111010000000101111111111111011100000001000001111111001011110111,
00001011111111101111011100000100000001111111110100000100000000010000000000000000111111110000000111111000111111110000001100001010000001000000101011111101000000000000001100000001111110101111101000000110000000100000001111111011111111000000010011111001000001101111111000000000000000000000001100000010111111011111101000000010000000101111110111111110000000110000001011110111000000101111011111111001000011001111111100000011000001010000010000000101111111101111110100000001000001101111000100000000000010000000010111111101,
00001100000010100000010111111101111111000000010011111111000000101111101111111101111111100000100000001001111111111111101000001001111111110000011000000011111111011111111100000101000001010000001000000011000010010000011011111111000010000000000100000001111101110000101111111111000000101111100111110111111110000000010000000001111101000000001011111100111111000000001011111110000000001111100011111100000001100000001111111111111111000000101011111111111111001111110100001010000000101111111111111101000001011111110011111110,
00010010111110100000000011110101000001000000001011111111111111011111100100000000111110100000010011111000000000001111111111111111000000010000010000000101111111101111100011111111000001101111011111111110000000011111111011111110000000000000001011111011000000010000111100000110111111001111101000000001000001100000000011111010111111100000000011110100111110101111011111110110111111000000010111110101000000001111011011111010000000100000001111111000000001010000001000000101000000010000001000001111111110011111110111111010;
